{
  "version": "1.0",
  "truncation": null,
  "padding": null,
  "added_tokens": [
    {
      "id": 0,
      "content": "<pad>",
      "single_word": false,
      "lstrip": false,
      "rstrip": false,
      "normalized": false,
      "special": true
    },
    {
      "id": 1,
      "content": "<unk>",
      "single_word": false,
      "lstrip": false,
      "rstrip": false,
      "normalized": false,
      "special": true
    },
    {
      "id": 2,
      "content": "<bos>",
      "single_word": false,
      "lstrip": false,
      "rstrip": false,
      "normalized": false,
      "special": true
    },
    {
      "id": 3,
      "content": "<eos>",
      "single_word": false,
      "lstrip": false,
      "rstrip": false,
      "normalized": false,
      "special": true
    }
  ],
  "normalizer": {
    "type": "NFKC"
  },
  "pre_tokenizer": {
    "type": "ByteLevel",
    "add_prefix_space": false,
    "trim_offsets": true,
    "use_regex": true
  },
  "post_processor": null,
  "decoder": {
    "type": "ByteLevel",
    "add_prefix_space": true,
    "trim_offsets": true,
    "use_regex": true
  },
  "model": {
    "type": "BPE",
    "dropout": null,
    "unk_token": "<unk>",
    "continuing_subword_prefix": null,
    "end_of_word_suffix": null,
    "fuse_unk": false,
    "byte_fallback": false,
    "ignore_merges": false,
    "vocab": {
      "<pad>": 0,
      "<unk>": 1,
      "<bos>": 2,
      "<eos>": 3,
      "!": 4,
      "\"": 5,
      "#": 6,
      "$": 7,
      "%": 8,
      "&": 9,
      "'": 10,
      "(": 11,
      ")": 12,
      "*": 13,
      "+": 14,
      ",": 15,
      "-": 16,
      ".": 17,
      "/": 18,
      "0": 19,
      "1": 20,
      "2": 21,
      "3": 22,
      "4": 23,
      "5": 24,
      "6": 25,
      "7": 26,
      "8": 27,
      "9": 28,
      ":": 29,
      ";": 30,
      "<": 31,
      "=": 32,
      ">": 33,
      "?": 34,
      "@": 35,
      "A": 36,
      "B": 37,
      "C": 38,
      "D": 39,
      "E": 40,
      "F": 41,
      "G": 42,
      "H": 43,
      "I": 44,
      "J": 45,
      "K": 46,
      "L": 47,
      "M": 48,
      "N": 49,
      "O": 50,
      "P": 51,
      "Q": 52,
      "R": 53,
      "S": 54,
      "T": 55,
      "U": 56,
      "V": 57,
      "W": 58,
      "X": 59,
      "Y": 60,
      "Z": 61,
      "[": 62,
      "\\": 63,
      "]": 64,
      "^": 65,
      "_": 66,
      "`": 67,
      "a": 68,
      "b": 69,
      "c": 70,
      "d": 71,
      "e": 72,
      "f": 73,
      "g": 74,
      "h": 75,
      "i": 76,
      "j": 77,
      "k": 78,
      "l": 79,
      "m": 80,
      "n": 81,
      "o": 82,
      "p": 83,
      "q": 84,
      "r": 85,
      "s": 86,
      "t": 87,
      "u": 88,
      "v": 89,
      "w": 90,
      "x": 91,
      "y": 92,
      "z": 93,
      "{": 94,
      "|": 95,
      "}": 96,
      "~": 97,
      "¡": 98,
      "¢": 99,
      "£": 100,
      "¤": 101,
      "¥": 102,
      "¦": 103,
      "§": 104,
      "¨": 105,
      "©": 106,
      "ª": 107,
      "«": 108,
      "¬": 109,
      "®": 110,
      "¯": 111,
      "°": 112,
      "±": 113,
      "²": 114,
      "³": 115,
      "´": 116,
      "µ": 117,
      "¶": 118,
      "·": 119,
      "¸": 120,
      "¹": 121,
      "º": 122,
      "»": 123,
      "¼": 124,
      "½": 125,
      "¾": 126,
      "¿": 127,
      "Â": 128,
      "Ã": 129,
      "Ä": 130,
      "Å": 131,
      "Æ": 132,
      "Ç": 133,
      "È": 134,
      "É": 135,
      "Ê": 136,
      "Ë": 137,
      "Ì": 138,
      "Í": 139,
      "Î": 140,
      "Ï": 141,
      "Ð": 142,
      "Ñ": 143,
      "Ò": 144,
      "Ó": 145,
      "Ô": 146,
      "Õ": 147,
      "Ö": 148,
      "×": 149,
      "Ø": 150,
      "Ù": 151,
      "Ú": 152,
      "Û": 153,
      "Ü": 154,
      "Ý": 155,
      "Þ": 156,
      "ß": 157,
      "à": 158,
      "á": 159,
      "â": 160,
      "ã": 161,
      "ä": 162,
      "å": 163,
      "æ": 164,
      "ç": 165,
      "è": 166,
      "é": 167,
      "ê": 168,
      "ë": 169,
      "ì": 170,
      "í": 171,
      "î": 172,
      "ï": 173,
      "ð": 174,
      "ó": 175,
      "ô": 176,
      "ĉ": 177,
      "Ċ": 178,
      "č": 179,
      "Ġ": 180,
      "Ģ": 181,
      "ģ": 182,
      "Ĥ": 183,
      "ĥ": 184,
      "Ħ": 185,
      "ħ": 186,
      "Ĩ": 187,
      "ĩ": 188,
      "Ī": 189,
      "ī": 190,
      "Ĭ": 191,
      "ĭ": 192,
      "Į": 193,
      "į": 194,
      "İ": 195,
      "ı": 196,
      "Ĳ": 197,
      "ĳ": 198,
      "Ĵ": 199,
      "ĵ": 200,
      "Ķ": 201,
      "ķ": 202,
      "ĸ": 203,
      "Ĺ": 204,
      "ĺ": 205,
      "Ļ": 206,
      "ļ": 207,
      "Ľ": 208,
      "ľ": 209,
      "Ŀ": 210,
      "ŀ": 211,
      "Ł": 212,
      "ł": 213,
      "Ń": 214,
      "Ġt": 215,
      "Ġa": 216,
      "in": 217,
      "he": 218,
      "re": 219,
      "on": 220,
      "Ġthe": 221,
      "er": 222,
      "Ġs": 223,
      "at": 224,
      "Ġc": 225,
      "Ġo": 226,
      "es": 227,
      "en": 228,
      "Ġw": 229,
      "nd": 230,
      "it": 231,
      "ing": 232,
      "is": 233,
      "Ġp": 234,
      "or": 235,
      "Ġb": 236,
      "Ġf": 237,
      "ou": 238,
      "al": 239,
      "an": 240,
      "Ġm": 241,
      "ed": 242,
      "Ġto": 243,
      "Ġof": 244,
      "Ġin": 245,
      "ar": 246,
      "Ġand": 247,
      "Ġd": 248,
      "ion": 249,
      "ic": 250,
      "le": 251,
      "ro": 252,
      "as": 253,
      "Ġth": 254,
      "Ġh": 255,
      "ct": 256,
      "Ġe": 257,
      "ent": 258,
      "Ġl": 259,
      "ve": 260,
      "il": 261,
      "Ġre": 262,
      "om": 263,
      "us": 264,
      "Ġis": 265,
      "Ġn": 266,
      "Ġy": 267,
      "et": 268,
      "ly": 269,
      "Ġg": 270,
      "Ġyou": 271,
      "ow": 272,
      "Ġbe": 273,
      "ut": 274,
      "ot": 275,
      "im": 276,
      "ĠT": 277,
      "id": 278,
      "st": 279,
      "ol": 280,
      "ce": 281,
      "ig": 282,
      "Ġfor": 283,
      "ra": 284,
      "ch": 285,
      "ĠA": 286,
      "ur": 287,
      "ation": 288,
      "Ġon": 289,
      "ĠI": 290,
      "Ġst": 291,
      "Ġthat": 292,
      "ir": 293,
      "el": 294,
      "ver": 295,
      "ul": 296,
      "Ġit": 297,
      "Ġare": 298,
      "ay": 299,
      "ith": 300,
      "Ġpro": 301,
      "se": 302,
      "if": 303,
      "Ġan": 304,
      "Ġwith": 305,
      "ĠS": 306,
      "am": 307,
      "Ġor": 308,
      "Ġcon": 309,
      "Ġas": 310,
      "est": 311,
      "od": 312,
      "Ġal": 313,
      "her": 314,
      "ĠC": 315,
      "ad": 316,
      "ter": 317,
      "ke": 318,
      "un": 319,
      "Ġcan": 320,
      "Ġwh": 321,
      "ge": 322,
      "ure": 323,
      "ess": 324,
      "ĠThe": 325,
      "Ġha": 326,
      "ate": 327,
      "Ġcom": 328,
      "ill": 329,
      "um": 330,
      "ab": 331,
      "Ġex": 332,
      "ant": 333,
      "ers": 334,
      "ĠW": 335,
      "Ġhe": 336,
      "pe": 337,
      "ore": 338,
      "qu": 339,
      "igh": 340,
      "th": 341,
      "ive": 342,
      "'s": 343,
      "em": 344,
      "Ġus": 345,
      "Ġyour": 346,
      "Ġv": 347,
      "ies": 348,
      "ment": 349,
      "op": 350,
      "Ġwe": 351,
      "ity": 352,
      "ac": 353,
      "os": 354,
      "ain": 355,
      "ist": 356,
      "Ġde": 357,
      "Ġ(": 358,
      "ĠP": 359,
      "ld": 360,
      "rom": 361,
      "ĠM": 362,
      "ect": 363,
      "ĠB": 364,
      "Ġne": 365,
      "pp": 366,
      "Ġch": 367,
      "Ġen": 368,
      "Ġr": 369,
      "Ġse": 370,
      "Ġsu": 371,
      "Ġat": 372,
      "Ġsh": 373,
      "ial": 374,
      "Ġhave": 375,
      "iv": 376,
      "Ġfrom": 377,
      "ort": 378,
      "Ġle": 379,
      "ight": 380,
      "Ġdo": 381,
      "Ġ1": 382,
      "nt": 383,
      "res": 384,
      "Ġby": 385,
      "ĠD": 386,
      "Ġpl": 387,
      "ĠH": 388,
      "Ġnot": 389,
      "and": 390,
      "oc": 391,
      "per": 392,
      "art": 393,
      "ud": 394,
      "ĠF": 395,
      "ust": 396,
      "all": 397,
      "ical": 398,
      "Ġthis": 399,
      "ome": 400,
      "ri": 401,
      "ide": 402,
      "Ġab": 403,
      "rou": 404,
      "Ġu": 405,
      "ould": 406,
      "ine": 407,
      "ĠE": 408,
      "pt": 409,
      "out": 410,
      "act": 411,
      "og": 412,
      "ns": 413,
      "Ġim": 414,
      "ost": 415,
      "Ġma": 416,
      "ard": 417,
      "ell": 418,
      "ions": 419,
      "du": 420,
      "Ġ2": 421,
      "ĠR": 422,
      "Ġwhe": 423,
      "red": 424,
      "Ġcomp": 425,
      "ich": 426,
      "Ġwill": 427,
      "Ġwor": 428,
      "ff": 429,
      "ast": 430,
      "gh": 431,
      "Ġint": 432,
      "our": 433,
      "Ġthey": 434,
      "Ġk": 435,
      "Ġtheir": 436,
      "ther": 437,
      "ood": 438,
      "iz": 439,
      "age": 440,
      "pl": 441,
      "king": 442,
      "Ġad": 443,
      "ĠN": 444,
      "The": 445,
      "ater": 446,
      "ĠL": 447,
      "..": 448,
      "âĢ": 449,
      "Ġall": 450,
      "Ġwas": 451,
      "ag": 452,
      "ated": 453,
      "able": 454,
      "Ġmore": 455,
      "end": 456,
      "ĠG": 457,
      "Ġcont": 458,
      "ere": 459,
      "hat": 460,
      "ult": 461,
      "ans": 462,
      "ib": 463,
      "ally": 464,
      "Ġbut": 465,
      "Ġso": 466,
      "oo": 467,
      "ks": 468,
      "ip": 469,
      "ĠO": 470,
      "ous": 471,
      "Ġinc": 472,
      "ru": 473,
      "wer": 474,
      "so": 475,
      "ind": 476,
      "Ġme": 477,
      "ep": 478,
      "00": 479,
      "Ġte": 480,
      "ry": 481,
      "Ġj": 482,
      "ike": 483,
      "Ġres": 484,
      "cc": 485,
      "estion": 486,
      "ong": 487,
      "are": 488,
      "Ġcl": 489,
      "ance": 490,
      "Qu": 491,
      "orm": 492,
      "Ġdis": 493,
      "Ġhas": 494,
      "Ġwhich": 495,
      "Ġout": 496,
      "vel": 497,
      "Ġ\"": 498,
      "ations": 499,
      "Ġsp": 500,
      "Ġimp": 501,
      "Ġun": 502,
      "ear": 503,
      "his": 504,
      "ie": 505,
      "Ġother": 506,
      "one": 507,
      "nswer": 508,
      "Ġalso": 509,
      "av": 510,
      "ents": 511,
      "Ġman": 512,
      "'t": 513,
      "Question": 514,
      "Ġone": 515,
      "ction": 516,
      "Ġtim": 517,
      "Ġspe": 518,
      "aus": 519,
      "reat": 520,
      "ĠAnswer": 521,
      "very": 522,
      "ence": 523,
      "ign": 524,
      "ens": 525,
      "ace": 526,
      "ice": 527,
      "ach": 528,
      "ap": 529,
      "Ġfe": 530,
      "ase": 531,
      "ass": 532,
      "ition": 533,
      "ĠIn": 534,
      "Ġthem": 535,
      "ĠU": 536,
      "Ġabout": 537,
      "ack": 538,
      "Ġper": 539,
      "low": 540,
      "ors": 541,
      "ary": 542,
      "ĠIt": 543,
      "Ġlike": 544,
      "Ġup": 545,
      "ress": 546,
      "Ġpre": 547,
      "Ġsc": 548,
      "Ġro": 549,
      "iff": 550,
      "Ġqu": 551,
      "Ġwhen": 552,
      "Ġsome": 553,
      "now": 554,
      "ire": 555,
      "Ġev": 556,
      "ue": 557,
      "ile": 558,
      "ild": 559,
      "Ġsy": 560,
      "ia": 561,
      "Ġif": 562,
      "ite": 563,
      "ound": 564,
      "Ġpart": 565,
      "ces": 566,
      "Ġneed": 567,
      "ose": 568,
      "Ġdiff": 569,
      "Ġinto": 570,
      "Ġcol": 571,
      "Ġuse": 572,
      "Ġmay": 573,
      "Ġtime": 574,
      "ĠThis": 575,
      "Ġhow": 576,
      "Ġapp": 577,
      "form": 578,
      "ak": 579,
      "ric": 580,
      "ĠY": 581,
      "ame": 582,
      "ll": 583,
      "Ġthan": 584,
      "ays": 585,
      "ber": 586,
      "ail": 587,
      "Ġthere": 588,
      "Ġhel": 589,
      "Ġits": 590,
      "row": 591,
      "Ġar": 592,
      "Ġbec": 593,
      "lect": 594,
      "ings": 595,
      "ree": 596,
      "Ġtra": 597,
      "Ġany": 598,
      "Ġpe": 599,
      "Ġover": 600,
      "Ġbl": 601,
      "Ġrec": 602,
      "ĠWhat": 603,
      "ause": 604,
      "ific": 605,
      "Ġhelp": 606,
      "als": 607,
      "Ġcomm": 608,
      "Ġbet": 609,
      "cess": 610,
      "ating": 611,
      "Ġspec": 612,
      "Ġcons": 613,
      "Ġknow": 614,
      "Ġthese": 615,
      "nder": 616,
      "ang": 617,
      "Ġgo": 618,
      "ove": 619,
      "ord": 620,
      "les": 621,
      "int": 622,
      "ond": 623,
      "ough": 624,
      "ish": 625,
      "Ġget": 626,
      "olog": 627,
      "te": 628,
      "hy": 629,
      "we": 630,
      "Ġtr": 631,
      "Ġdes": 632,
      "ake": 633,
      "Ġstud": 634,
      "ons": 635,
      "Ġwater": 636,
      "Ġsa": 637,
      "rough": 638,
      "stem": 639,
      "Ġind": 640,
      "Ġused": 641,
      "Ġprodu": 642,
      "Ġour": 643,
      "Ġwhat": 644,
      "ount": 645,
      "Ġco": 646,
      "Ġ3": 647,
      "Ġeff": 648,
      "ub": 649,
      "ms": 650,
      "ory": 651,
      "ature": 652,
      "ular": 653,
      "Ġra": 654,
      "Ġgen": 655,
      "Ġdiffere": 656,
      "ĠJ": 657,
      "ari": 658,
      "Ġfl": 659,
      "Ġmost": 660,
      "Ġyear": 661,
      "alth": 662,
      "Ġoff": 663,
      "lud": 664,
      "ook": 665,
      "ning": 666,
      "ting": 667,
      "ople": 668,
      "round": 669,
      "Ġact": 670,
      "ĠâĢ": 671,
      "Ġsuch": 672,
      "erv": 673,
      "Ġacc": 674,
      "vers": 675,
      "Ġwho": 676,
      "ick": 677,
      "ne": 678,
      "ck": 679,
      "Ġprov": 680,
      "Ġam": 681,
      "Ġunder": 682,
      "Ġmake": 683,
      "Ġwere": 684,
      "ple": 685,
      "ient": 686,
      "Ġag": 687,
      "Ġadd": 688,
      "Ġnew": 689,
      "eth": 690,
      "Ġshould": 691,
      "ates": 692,
      "Ġsm": 693,
      "xt": 694,
      "Ġ20": 695,
      "Ġtw": 696,
      "ility": 697,
      "ful": 698,
      "Ġbeen": 699,
      "ĠSt": 700,
      "Ġem": 701,
      "ject": 702,
      "Ġcar": 703,
      "Ġpeople": 704,
      "uring": 705,
      "Ġwould": 706,
      "ange": 707,
      "oth": 708,
      "irst": 709,
      ").": 710,
      "erg": 711,
      "Ġinclud": 712,
      "ph": 713,
      "Ġsystem": 714,
      "Ġthrough": 715,
      "ments": 716,
      "Ġwork": 717,
      "oss": 718,
      "Ġty": 719,
      "Ġdi": 720,
      "Ġjust": 721,
      "Ġpr": 722,
      "ov": 723,
      "hes": 724,
      "ble": 725,
      "ĠK": 726,
      "Ġonly": 727,
      "ics": 728,
      "Ġno": 729,
      "ower": 730,
      "Ġmy": 731,
      "ative": 732,
      "Ġpo": 733,
      "its": 734,
      "ities": 735,
      "Ġplant": 736,
      "ise": 737,
      "ced": 738,
      "ob": 739,
      "Ġinter": 740,
      "ten": 741,
      "Ġke": 742,
      "ark": 743,
      "ĠV": 744,
      "Ġmany": 745,
      "Ġsur": 746,
      "Ġhigh": 747,
      "Ġreg": 748,
      "...": 749,
      "Ġrel": 750,
      "Ġwell": 751,
      "velop": 752,
      "hen": 753,
      "ible": 754,
      "Ġhealth": 755,
      "own": 756,
      "ual": 757,
      "Ġbu": 758,
      "Ġtwo": 759,
      "old": 760,
      "fore": 761,
      "Ġdoes": 762,
      "Ġdifferent": 763,
      "chn": 764,
      "tain": 765,
      "ract": 766,
      "Ġac": 767,
      "fter": 768,
      "lic": 769,
      "Ġfirst": 770,
      "Ġexper": 771,
      "ink": 772,
      "Ġrem": 773,
      "Ġwhere": 774,
      "ience": 775,
      "ren": 776,
      "ween": 777,
      "ram": 778,
      "Ġ-": 779,
      "Ġmod": 780,
      "ased": 781,
      "ft": 782,
      "Ġtrans": 783,
      "hed": 784,
      "Ġlong": 785,
      "Ġche": 786,
      "Ġdevelop": 787,
      "Ġrep": 788,
      "get": 789,
      "Ġway": 790,
      "Ġimport": 791,
      "Ġob": 792,
      "uch": 793,
      "Ġbetween": 794,
      "cy": 795,
      "Ġprocess": 796,
      "ize": 797,
      "Ġsim": 798,
      "Ġsupp": 799,
      "Ġpat": 800,
      "arm": 801,
      "ife": 802,
      "Ġvari": 803,
      "ade": 804,
      "Ġdec": 805,
      "ually": 806,
      "Ġthen": 807,
      "Ġusing": 808,
      "rit": 809,
      "erm": 810,
      "ential": 811,
      "In": 812,
      "Ġcould": 813,
      "ĠIf": 814,
      "ef": 815,
      "Ġdet": 816,
      "Ġinv": 817,
      "ĠCh": 818,
      "Ġfood": 819,
      "Ġbecause": 820,
      "Ġass": 821,
      "Ġinst": 822,
      "rib": 823,
      "Ġinf": 824,
      "Ġeven": 825,
      "ts": 826,
      "Ġevery": 827,
      "iron": 828,
      "ious": 829,
      "Ġ4": 830,
      "Ġcre": 831,
      "Ġgrow": 832,
      "Ġatt": 833,
      "Ġph": 834,
      "wn": 835,
      "ically": 836,
      "iss": 837,
      "Ġform": 838,
      "ever": 839,
      "Ġmain": 840,
      "Ġeffect": 841,
      "ĠHow": 842,
      "Ġtechn": 843,
      "Ġvery": 844,
      "ĠThey": 845,
      "ily": 846,
      "Ġsee": 847,
      "gan": 848,
      "ps": 849,
      "Ġsub": 850,
      "'re": 851,
      "ines": 852,
      "iqu": 853,
      "ural": 854,
      "pect": 855,
      "oy": 856,
      "ution": 857,
      "Ġ5": 858,
      "arch": 859,
      "ĠYou": 860,
      "ins": 861,
      "Ġrequ": 862,
      "Ġlear": 863,
      "ool": 864,
      "Ġsign": 865,
      "Ġmuch": 866,
      "Ġsk": 867,
      "Ġeach": 868,
      "Ġext": 869,
      "ures": 870,
      "Ġlar": 871,
      "Ġnum": 872,
      "Ġrese": 873,
      "Ġhum": 874,
      "mer": 875,
      "ology": 876,
      "ness": 877,
      "ody": 878,
      "Ġins": 879,
      "gg": 880,
      "Ġback": 881,
      "Ġexp": 882,
      "Ġlight": 883,
      "Ġgener": 884,
      "Ġdon": 885,
      "vent": 886,
      "Ġimportant": 887,
      "Ġgood": 888,
      "ron": 889,
      "Ġgra": 890,
      "Ġset": 891,
      "Ġexam": 892,
      "cial": 893,
      "ata": 894,
      "ian": 895,
      "Ġwant": 896,
      "ĠâĢĵ": 897,
      "Ġfol": 898,
      "Ġyears": 899,
      "Ġsol": 900,
      "Ġmin": 901,
      "Ġhad": 902,
      "Ġdisc": 903,
      "ruct": 904,
      "ergy": 905,
      "viron": 906,
      "Ġpers": 907,
      "Ġfun": 908,
      "Ġchild": 909,
      "Ġincre": 910,
      "Ġsmall": 911,
      "Ġfind": 912,
      "uc": 913,
      "stand": 914,
      "elf": 915,
      "Ġwhile": 916,
      "Ġav": 917,
      "ety": 918,
      "Ġdog": 919,
      "),": 920,
      "ec": 921,
      "Ġelect": 922,
      "ss": 923,
      "Ġafter": 924,
      "Ġpres": 925,
      "Ġear": 926,
      "Ġve": 927,
      "ues": 928,
      "Ġhis": 929,
      "ĠWh": 930,
      "Ġcle": 931,
      "Ġ19": 932,
      "Ġstart": 933,
      "Ġmed": 934,
      "Ġloc": 935,
      "ality": 936,
      "Ġtake": 937,
      "Ġresult": 938,
      "ied": 939,
      "other": 940,
      "ational": 941,
      "Ġfound": 942,
      "Ġgl": 943,
      "Ġair": 944,
      "Ġcur": 945,
      "Ġdesign": 946,
      "Ġref": 947,
      "Ġbeing": 948,
      "ix": 949,
      "Ġcell": 950,
      "ices": 951,
      "Ġart": 952,
      "ists": 953,
      "Ġsec": 954,
      "Ġworld": 955,
      "urn": 956,
      "--": 957,
      "ĠWe": 958,
      "ds": 959,
      "nce": 960,
      "Ġfact": 961,
      "cept": 962,
      "Ġlevel": 963,
      "ases": 964,
      "tle": 965,
      "Ġval": 966,
      "Ġfollow": 967,
      "Ġeas": 968,
      "Ġcall": 969,
      "ĠUn": 970,
      "Ġduring": 971,
      "Ġbre": 972,
      "aterial": 973,
      "Ġbefore": 974,
      "Ġaround": 975,
      "vironment": 976,
      "Ġpot": 977,
      "Ġhand": 978,
      "Ġcomple": 979,
      "Ġher": 980,
      "ock": 981,
      "Ġcor": 982,
      "ages": 983,
      "eg": 984,
      "Ġdep": 985,
      "Ġinform": 986,
      "Ġsame": 987,
      "Ġdist": 988,
      "Ġprog": 989,
      "Ġ201": 990,
      "Ġallow": 991,
      "Ġproble": 992,
      "ider": 993,
      "Ġbr": 994,
      "ives": 995,
      "Ġshe": 996,
      "Ġdown": 997,
      "Ġtem": 998,
      "Ġstr": 999,
      "Ġown": 1000,
      "els": 1001,
      "ized": 1002,
      "omm": 1003,
      "rop": 1004,
      "ward": 1005,
      "Ġmon": 1006,
      "Ġthose": 1007,
      "Ġpartic": 1008,
      "Ġtyp": 1009,
      "dition": 1010,
      "Ġredu": 1011,
      "Ġexpl": 1012,
      "air": 1013,
      "cl": 1014,
      "tern": 1015,
      "ection": 1016,
      "cer": 1017,
      "ys": 1018,
      "Ġent": 1019,
      "Ġlife": 1020,
      "Ġoften": 1021,
      "Ġlead": 1022,
      "Ġenergy": 1023,
      "Ġboth": 1024,
      "chool": 1025,
      "Ġanim": 1026,
      "Ġright": 1027,
      "aw": 1028,
      "Ġbo": 1029,
      "Ġshow": 1030,
      "Ġaut": 1031,
      ".\"": 1032,
      "Ġcontro": 1033,
      "Ġdata": 1034,
      "Ġkeep": 1035,
      "ather": 1036,
      "ident": 1037,
      "Ġbest": 1038,
      "ets": 1039,
      "ew": 1040,
      "Ġpower": 1041,
      "Ġmaterial": 1042,
      "io": 1043,
      "Ġread": 1044,
      "ale": 1045,
      "Ġopt": 1046,
      "ty": 1047,
      "Ġtoo": 1048,
      "ides": 1049,
      "Ġbody": 1050,
      "Ġgu": 1051,
      "Ġed": 1052,
      "Ġvis": 1053,
      "Ġmade": 1054,
      "Ġchar": 1055,
      "ger": 1056,
      "iew": 1057,
      "ien": 1058,
      "ium": 1059,
      "atter": 1060,
      "ĠFor": 1061,
      "read": 1062,
      "Ġless": 1063,
      "Ġperson": 1064,
      "Ġcommon": 1065,
      "Ġ'": 1066,
      "Ġcat": 1067,
      "Ġpop": 1068,
      "Ġ6": 1069,
      "Ġsom": 1070,
      "Ġcare": 1071,
      "ving": 1072,
      "Ġprot": 1073,
      "Ġdr": 1074,
      "ull": 1075,
      "ĠPro": 1076,
      "Ġend": 1077,
      "ted": 1078,
      "Ġproduct": 1079,
      "Ġposs": 1080,
      "ars": 1081,
      "iel": 1082,
      "Ġtest": 1083,
      "Ġmet": 1084,
      "rain": 1085,
      "Ġplay": 1086,
      "reen": 1087,
      "Ġenvironment": 1088,
      "iving": 1089,
      "What": 1090,
      "ional": 1091,
      "ave": 1092,
      "Ġeng": 1093,
      "ĠAs": 1094,
      "imate": 1095,
      "Ġadv": 1096,
      "Ġunderstand": 1097,
      "ĠHe": 1098,
      "aking": 1099,
      "ier": 1100,
      "eng": 1101,
      "ited": 1102,
      "ĠAl": 1103,
      "Ġday": 1104,
      "Ġdef": 1105,
      "Ġpoint": 1106,
      "acter": 1107,
      "Ġresp": 1108,
      "Ġhome": 1109,
      "ng": 1110,
      "ute": 1111,
      "Ġinformation": 1112,
      "hys": 1113,
      "rent": 1114,
      "Ġsaid": 1115,
      "ath": 1116,
      "Ġcommun": 1117,
      "Ġlit": 1118,
      "ivers": 1119,
      "led": 1120,
      "Ġspecies": 1121,
      "cing": 1122,
      "Ġtreat": 1123,
      "Ġorgan": 1124,
      "ason": 1125,
      "up": 1126,
      "ethod": 1127,
      "ves": 1128,
      "Ġequ": 1129,
      "ved": 1130,
      "Ġproper": 1131,
      "ivid": 1132,
      "ict": 1133,
      "Ġnumber": 1134,
      "der": 1135,
      "Ġsaf": 1136,
      "rap": 1137,
      "oci": 1138,
      "ven": 1139,
      "perature": 1140,
      "Ġens": 1141,
      ",\"": 1142,
      "Ġben": 1143,
      "ids": 1144,
      "Ġnow": 1145,
      "any": 1146,
      "How": 1147,
      "ands": 1148,
      "Ġmight": 1149,
      "20": 1150,
      "the": 1151,
      "ĠThese": 1152,
      "Ġplan": 1153,
      "ork": 1154,
      "Ġ10": 1155,
      "Ġprovide": 1156,
      "Ġlook": 1157,
      "ont": 1158,
      "Ġpol": 1159,
      "Ġstudy": 1160,
      "Ġserv": 1161,
      "Ġdire": 1162,
      "Ġap": 1163,
      "Ġfam": 1164,
      "Ġaw": 1165,
      "Ġbetter": 1166,
      "Ġresearch": 1167,
      "Ġsupport": 1168,
      "bs": 1169,
      "ining": 1170,
      "Ġcent": 1171,
      "ĠTh": 1172,
      "ash": 1173,
      "Ġimpro": 1174,
      "ĠAn": 1175,
      "hip": 1176,
      "cent": 1177,
      "Ġclass": 1178,
      "Ġdid": 1179,
      "Ġwithout": 1180,
      "Ġpur": 1181,
      "ired": 1182,
      "Ġgreat": 1183,
      "Ġmethod": 1184,
      "Ġbeh": 1185,
      "This": 1186,
      "itions": 1187,
      "Ġop": 1188,
      "ots": 1189,
      "und": 1190,
      "Ġaff": 1191,
      "inal": 1192,
      "ways": 1193,
      "ĠAnd": 1194,
      "Ġdise": 1195,
      "Ġstill": 1196,
      "ead": 1197,
      "Ġtemperature": 1198,
      "Ġstudents": 1199,
      "__": 1200,
      "ants": 1201,
      "less": 1202,
      "Ġactiv": 1203,
      "âĢĻ": 1204,
      "itive": 1205,
      "ince": 1206,
      "ĠTo": 1207,
      "Ġplants": 1208,
      "kes": 1209,
      "ulation": 1210,
      "Ġlarge": 1211,
      "Ġprof": 1212,
      "ined": 1213,
      "Ġcreat": 1214,
      "Ġchange": 1215,
      "Ġpos": 1216,
      "ering": 1217,
      "Ġincluding": 1218,
      "Ġexample": 1219,
      "Ġgrou": 1220,
      "Ġhy": 1221,
      "ĠThere": 1222,
      "ability": 1223,
      "Ġris": 1224,
      "000": 1225,
      "Ġmem": 1226,
      "Ġmaking": 1227,
      "day": 1228,
      "ĠBut": 1229,
      "Ġbuild": 1230,
      "Ġnat": 1231,
      "Ġthink": 1232,
      "Ġiss": 1233,
      "Ġtop": 1234,
      "ert": 1235,
      "Ġtext": 1236,
      "Ġflow": 1237,
      "Ġocc": 1238,
      "oms": 1239,
      "Ġpain": 1240,
      "Ġtype": 1241,
      "If": 1242,
      "Ġfew": 1243,
      "ior": 1244,
      "Ġcontrol": 1245,
      "ention": 1246,
      "Ġbenef": 1247,
      "ross": 1248,
      "Ġide": 1249,
      "Ġhapp": 1250,
      "Ġagain": 1251,
      "Ġey": 1252,
      "Ġchang": 1253,
      "Ġcreate": 1254,
      "Ġknown": 1255,
      "line": 1256,
      "Ġhuman": 1257,
      "Ġser": 1258,
      "Ġcontain": 1259,
      "Ġcaus": 1260,
      "Ġsl": 1261,
      "ared": 1262,
      "It": 1263,
      "Ġpract": 1264,
      "ism": 1265,
      "ouse": 1266,
      "Ġperform": 1267,
      "Ġthree": 1268,
      "hers": 1269,
      "Ġbel": 1270,
      "apt": 1271,
      "co": 1272,
      "ify": 1273,
      "ording": 1274,
      "ator": 1275,
      "ital": 1276,
      "Ġplace": 1277,
      "rodu": 1278,
      "Ġsw": 1279,
      "Ġ7": 1280,
      "Ġthough": 1281,
      "Ġlearn": 1282,
      "Ġele": 1283,
      "Ġbas": 1284,
      "Ġcal": 1285,
      "Ġcount": 1286,
      "Ġrun": 1287,
      "ats": 1288,
      "Ġproject": 1289,
      "Ġmus": 1290,
      "ral": 1291,
      "ters": 1292,
      "oid": 1293,
      "Ġlow": 1294,
      "Ġess": 1295,
      "ex": 1296,
      "Ġmust": 1297,
      "Ġcause": 1298,
      "Ġthings": 1299,
      "Ġ8": 1300,
      "Ġfeel": 1301,
      "be": 1302,
      "ooking": 1303,
      "Ġindivid": 1304,
      "Ġschool": 1305,
      "'ll": 1306,
      "Ġsure": 1307,
      "here": 1308,
      "ĠSo": 1309,
      "ner": 1310,
      "Ġchildren": 1311,
      "Ġdev": 1312,
      "iness": 1313,
      "Ġappro": 1314,
      "Ġmeas": 1315,
      "gen": 1316,
      "irc": 1317,
      "Ġarea": 1318,
      "Ġsurf": 1319,
      "ĠHowever": 1320,
      "Ġpotential": 1321,
      "Ġtre": 1322,
      "Ġdel": 1323,
      "Ġconf": 1324,
      "ole": 1325,
      "iven": 1326,
      "Ġconst": 1327,
      "Ġphys": 1328,
      "ield": 1329,
      "Ġpress": 1330,
      "Ġhard": 1331,
      "ĠAd": 1332,
      "omp": 1333,
      "ique": 1334,
      "Ġcurrent": 1335,
      "Ġwithin": 1336,
      "ax": 1337,
      "Ġcalled": 1338,
      "ething": 1339,
      "Ġcost": 1340,
      "Ġprevent": 1341,
      "Ġcontin": 1342,
      "Ġbi": 1343,
      "Ġconn": 1344,
      "Ġbir": 1345,
      "Ġdam": 1346,
      "me": 1347,
      "ĠWhen": 1348,
      "meric": 1349,
      "Ġsour": 1350,
      "ense": 1351,
      "ĠSc": 1352,
      "to": 1353,
      "Ġphot": 1354,
      "Ġgr": 1355,
      "Ġclean": 1356,
      "Ġpub": 1357,
      "aring": 1358,
      "br": 1359,
      "Ġwhy": 1360,
      "Ġreal": 1361,
      "ination": 1362,
      "ug": 1363,
      "icle": 1364,
      "'ve": 1365,
      "Ġcap": 1366,
      "ern": 1367,
      "Ġtry": 1368,
      "pr": 1369,
      "Ġexperience": 1370,
      "ling": 1371,
      "Ġspecific": 1372,
      "de": 1373,
      "Ġmove": 1374,
      "Ġreally": 1375,
      "Ġinclude": 1376,
      "ape": 1377,
      "Ġsomething": 1378,
      "Ġmark": 1379,
      "ills": 1380,
      "ime": 1381,
      "erest": 1382,
      "Ġsit": 1383,
      "Ġsignific": 1384,
      "ently": 1385,
      "iver": 1386,
      "ank": 1387,
      "ental": 1388,
      "Ġstep": 1389,
      "atch": 1390,
      "Ġsecond": 1391,
      "Ġrest": 1392,
      "ization": 1393,
      "Ġfollowing": 1394,
      "Ġconsider": 1395,
      "Ġfunction": 1396,
      "ients": 1397,
      "Ġoper": 1398,
      "Ġident": 1399,
      "Ġstand": 1400,
      "Ġable": 1401,
      "Ġpossible": 1402,
      "ected": 1403,
      "Ġdue": 1404,
      "Ġavail": 1405,
      "Ġanother": 1406,
      "Ġstate": 1407,
      "Ġnatural": 1408,
      "port": 1409,
      "Ġtool": 1410,
      "Ġimm": 1411,
      "Ġgoing": 1412,
      "Ġhere": 1413,
      "uss": 1414,
      "etic": 1415,
      "Ġcour": 1416,
      "ertain": 1417,
      "Ġaddition": 1418,
      "Ġsym": 1419,
      "Ġprogram": 1420,
      "Ġdirect": 1421,
      "iversity": 1422,
      "of": 1423,
      "Ġfree": 1424,
      "Ġcells": 1425,
      "ocus": 1426,
      "con": 1427,
      "Ġcolor": 1428,
      "Ġbus": 1429,
      "Ġant": 1430,
      "Ġfil": 1431,
      "Ġwee": 1432,
      "osed": 1433,
      "Ġlot": 1434,
      "Ġcond": 1435,
      "Ġ200": 1436,
      "Ġbecome": 1437,
      "ends": 1438,
      "Ġblood": 1439,
      "Ġamount": 1440,
      "Ġvarious": 1441,
      "akes": 1442,
      "ĠAmeric": 1443,
      "ĠPl": 1444,
      "raw": 1445,
      "ĠĠ": 1446,
      "Ġsoil": 1447,
      "Ġhead": 1448,
      "Ġcome": 1449,
      "Ġ9": 1450,
      "Ġfish": 1451,
      "Ġput": 1452,
      "Ġpar": 1453,
      "Ġappe": 1454,
      "Ġalways": 1455,
      "Ġmeans": 1456,
      "Ġlittle": 1457,
      "Ġstruct": 1458,
      "land": 1459,
      "Ġimpact": 1460,
      "Ġold": 1461,
      "Ġanal": 1462,
      "Ġcomput": 1463,
      "ration": 1464,
      "ĠAr": 1465,
      "eds": 1466,
      "ane": 1467,
      "ished": 1468,
      "Ġsever": 1469,
      "Ġopen": 1470,
      "thing": 1471,
      "Ġinvol": 1472,
      "10": 1473,
      "Ġsay": 1474,
      "icro": 1475,
      "Ġret": 1476,
      "Ġlim": 1477,
      "oot": 1478,
      "Ġneeds": 1479,
      "Ġlet": 1480,
      "Ġpass": 1481,
      "Ġest": 1482,
      "Ġlast": 1483,
      "Ġcomb": 1484,
      "Ġcirc": 1485,
      "St": 1486,
      "Ġmult": 1487,
      "Ġel": 1488,
      "Ġvol": 1489,
      "cle": 1490,
      "Ġpresent": 1491,
      "ption": 1492,
      "ccess": 1493,
      "Ġhig": 1494,
      "Ġ0": 1495,
      "Ġlay": 1496,
      "aste": 1497,
      "Ġspace": 1498,
      "Ġnut": 1499,
      "aves": 1500,
      "Ġsize": 1501,
      "Ġproblem": 1502,
      "Ġcr": 1503,
      "Ġsignificant": 1504,
      "ones": 1505,
      "ateg": 1506,
      "oad": 1507,
      "Ġrequire": 1508,
      "aper": 1509,
      "Ġheat": 1510,
      "ified": 1511,
      "ered": 1512,
      "ush": 1513,
      "Ġes": 1514,
      "Ġavailable": 1515,
      "put": 1516,
      "Ġtypes": 1517,
      "ĠEx": 1518,
      "ox": 1519,
      "Ġmean": 1520,
      "Ġprovid": 1521,
      "Ġcy": 1522,
      "bers": 1523,
      "arent": 1524,
      "Ġdevelopment": 1525,
      "ilar": 1526,
      "Ġareas": 1527,
      "Ġcut": 1528,
      "Ġet": 1529,
      "ode": 1530,
      "Ġfeature": 1531,
      "Ġ=": 1532,
      "Ġfin": 1533,
      "over": 1534,
      "Ġinterest": 1535,
      "iod": 1536,
      "Ġfocus": 1537,
      "arden": 1538,
      "Ġprom": 1539,
      "Ġmot": 1540,
      "ably": 1541,
      "Ġseveral": 1542,
      "Ġcam": 1543,
      "ocial": 1544,
      "Ġrange": 1545,
      "ieve": 1546,
      "Ġlearning": 1547,
      "ries": 1548,
      "Ġbased": 1549,
      "ending": 1550,
      "ĠIs": 1551,
      "Ġapplic": 1552,
      "Ġensure": 1553,
      "omes": 1554,
      "Ġunt": 1555,
      "Ġindust": 1556,
      "ote": 1557,
      "Ġdem": 1558,
      "ances": 1559,
      "âĢĶ": 1560,
      "Ġkey": 1561,
      "Ġscient": 1562,
      "ards": 1563,
      "ended": 1564,
      "ee": 1565,
      "pecial": 1566,
      "Ġtimes": 1567,
      "ips": 1568,
      "Ġdisease": 1569,
      "orn": 1570,
      "ĠSh": 1571,
      "Ġprofess": 1572,
      "Ġfre": 1573,
      "Ġsystems": 1574,
      "aces": 1575,
      "az": 1576,
      "Ġessential": 1577,
      "Ġgive": 1578,
      "ems": 1579,
      "'m": 1580,
      "Ġpost": 1581,
      "ĠWhich": 1582,
      "Ġmakes": 1583,
      "Ġenough": 1584,
      "Ġeffective": 1585,
      "Ġoccur": 1586,
      "Ġusually": 1587,
      "Ġdeterm": 1588,
      "Ġquality": 1589,
      "Ġaccess": 1590,
      "Ġoil": 1591,
      "Ġbeg": 1592,
      "Ġteam": 1593,
      "Ġsens": 1594,
      "Ġrisk": 1595,
      "Ġconditions": 1596,
      "ton": 1597,
      "Ġanimals": 1598,
      "Ġobject": 1599,
      "Ġbig": 1600,
      "Ġmonth": 1601,
      "atic": 1602,
      "ision": 1603,
      "oes": 1604,
      "ĠCl": 1605,
      "af": 1606,
      "Ġsurface": 1607,
      "ency": 1608,
      "ours": 1609,
      "Ġsal": 1610,
      "outh": 1611,
      "Ġspecial": 1612,
      "gn": 1613,
      "Ġhist": 1614,
      "Ġdesc": 1615,
      "Ġchem": 1616,
      "Ġengine": 1617,
      "Ġnon": 1618,
      "par": 1619,
      "ĠRe": 1620,
      "Ġside": 1621,
      "We": 1622,
      "arc": 1623,
      "fort": 1624,
      "alk": 1625,
      "Ġline": 1626,
      "Ġcertain": 1627,
      "urther": 1628,
      "Ġopp": 1629,
      "Ġparticular": 1630,
      "Ġlist": 1631,
      "ĠCan": 1632,
      "Ġcho": 1633,
      "Ġorder": 1634,
      "ological": 1635,
      "au": 1636,
      "view": 1637,
      "Ġ$": 1638,
      "Ġz": 1639,
      "Ġtechnology": 1640,
      "Ġmaterials": 1641,
      "NA": 1642,
      "olution": 1643,
      "Ġdig": 1644,
      "ples": 1645,
      "ĠInd": 1646,
      "Ġeffic": 1647,
      "Ġmill": 1648,
      "Ġbehav": 1649,
      "aut": 1650,
      "ah": 1651,
      "ring": 1652,
      "ories": 1653,
      "ires": 1654,
      "Ġconsum": 1655,
      "Ġimprove": 1656,
      "Ġgroup": 1657,
      "bon": 1658,
      "oose": 1659,
      "Ġsince": 1660,
      "Ġpressure": 1661,
      "hor": 1662,
      "cul": 1663,
      "ication": 1664,
      "ĠWith": 1665,
      "Ġ[": 1666,
      "Ġmil": 1667,
      "inc": 1668,
      "ustom": 1669,
      "Ġprim": 1670,
      "Ġ&": 1671,
      "Ġsound": 1672,
      "Ġreport": 1673,
      "Ġwind": 1674,
      "lu": 1675,
      "Ġeduc": 1676,
      "Ġ...": 1677,
      "Ġuntil": 1678,
      "Ġtoget": 1679,
      "ĠBy": 1680,
      "Ġtogether": 1681,
      "Ġlevels": 1682,
      "Ġproblems": 1683,
      "oring": 1684,
      "ables": 1685,
      "asing": 1686,
      "ĠBe": 1687,
      "iting": 1688,
      "Ġweight": 1689,
      "Ġter": 1690,
      "ĠRes": 1691,
      "Ġfeed": 1692,
      "aster": 1693,
      "Ġrecomm": 1694,
      "Ġmar": 1695,
      "ains": 1696,
      "Ġsuccess": 1697,
      "As": 1698,
      "ately": 1699,
      "Ġfamily": 1700,
      "let": 1701,
      "When": 1702,
      "Ġcase": 1703,
      "Ġmov": 1704,
      "Ġnear": 1705,
      "sc": 1706,
      "Ġaway": 1707,
      "Ġenc": 1708,
      "Ġresults": 1709,
      "self": 1710,
      "omen": 1711,
      "ĠNew": 1712,
      "Ġname": 1713,
      "Ġworks": 1714,
      "Ġbra": 1715,
      "Ġshort": 1716,
      "uture": 1717,
      "fer": 1718,
      "Ġworking": 1719,
      "Ġfore": 1720,
      "oint": 1721,
      "ury": 1722,
      "Ġchall": 1723,
      "Ġhaving": 1724,
      "Ġcomplete": 1725,
      "Ġcult": 1726,
      "ware": 1727,
      "Ġkind": 1728,
      "ored": 1729,
      "ember": 1730,
      "Ġmaintain": 1731,
      "Ġincrease": 1732,
      "Ġnext": 1733,
      "inter": 1734,
      "utes": 1735,
      "Ġnecess": 1736,
      "ĠThat": 1737,
      "Ġperiod": 1738,
      "Ġrele": 1739,
      "Ġsing": 1740,
      "Ġrepl": 1741,
      "pecially": 1742,
      "Ġdays": 1743,
      "Ġalong": 1744,
      "Ġsun": 1745,
      "Ġsugg": 1746,
      "ither": 1747,
      "Ġproducts": 1748,
      "Ġleg": 1749,
      "jor": 1750,
      "fact": 1751,
      "You": 1752,
      "Ġcou": 1753,
      "Ġtru": 1754,
      "Ġrad": 1755,
      "Ġcomes": 1756,
      "ump": 1757,
      "por": 1758,
      "Ġprote": 1759,
      "work": 1760,
      "agement": 1761,
      "Ġturn": 1762,
      "icult": 1763,
      "Ġquick": 1764,
      "bit": 1765,
      "Ġmach": 1766,
      "Ġearly": 1767,
      "Ġhigher": 1768,
      "50": 1769,
      "Ġprotect": 1770,
      "Ġgrowth": 1771,
      "ĠAt": 1772,
      "imes": 1773,
      "Ġlocal": 1774,
      "oney": 1775,
      "Ġothers": 1776,
      "Ġlab": 1777,
      "ogn": 1778,
      "Ġeasy": 1779,
      "une": 1780,
      "osp": 1781,
      "Ġchanges": 1782,
      "Ġtreatment": 1783,
      "Ġmodel": 1784,
      "----": 1785,
      "Ġlikely": 1786,
      "ĠSe": 1787,
      "Ġstrong": 1788,
      "Ġcourse": 1789,
      "Ġsimilar": 1790,
      ".,": 1791,
      "Ġsocial": 1792,
      "Ġmeasure": 1793,
      "Ġbusiness": 1794,
      "light": 1795,
      "ret": 1796,
      "Ġsuggest": 1797,
      "Ġreduce": 1798,
      "Ġfull": 1799,
      "erc": 1800,
      "Ġactually": 1801,
      "not": 1802,
      "ler": 1803,
      "19": 1804,
      "ĠUniversity": 1805,
      "Ġleast": 1806,
      "Ġvalue": 1807,
      "uro": 1808,
      "Ġlower": 1809,
      "oor": 1810,
      "Ġhealthy": 1811,
      "Ġfri": 1812,
      "There": 1813,
      "Ġgarden": 1814,
      "ators": 1815,
      "Ġ.": 1816,
      "Ġdoesn": 1817,
      "Ġgreen": 1818,
      "ream": 1819,
      "ooks": 1820,
      "Ġground": 1821,
      "Ġfac": 1822,
      "Ġi": 1823,
      "ches": 1824,
      "ann": 1825,
      "Ġissues": 1826,
      "Ġsoft": 1827,
      "Ġdry": 1828,
      "aging": 1829,
      "Ġste": 1830,
      "ised": 1831,
      "Ġrece": 1832,
      "Ġrole": 1833,
      "Ġorig": 1834,
      "Ġdogs": 1835,
      "duct": 1836,
      "ipp": 1837,
      "agn": 1838,
      "Ġsimple": 1839,
      "Ġtur": 1840,
      "ivity": 1841,
      "Ġ12": 1842,
      "Ġmajor": 1843,
      "vious": 1844,
      "Ġans": 1845,
      "Ġreason": 1846,
      "Ġmicro": 1847,
      "Ġassoci": 1848,
      "Ġpred": 1849,
      "Ġred": 1850,
      "Ġwarm": 1851,
      "rect": 1852,
      "Ġresour": 1853,
      "Ġfrequ": 1854,
      "atory": 1855,
      "Ġcharacter": 1856,
      "ĠCon": 1857,
      "Ġlive": 1858,
      "An": 1859,
      "Ġfuture": 1860,
      "Ġsum": 1861,
      "ĠTe": 1862,
      "Ġvir": 1863,
      "Ġunique": 1864,
      "Ġinvest": 1865,
      "Ġcustom": 1866,
      "Ġdiet": 1867,
      "ĠDe": 1868,
      "Ġbro": 1869,
      "izing": 1870,
      "ression": 1871,
      "Ġwrit": 1872,
      "Ġespecially": 1873,
      "Ġ18": 1874,
      "ames": 1875,
      "Ġhim": 1876,
      "Ġavoid": 1877,
      "Ġproduction": 1878,
      "Ġfour": 1879,
      "rag": 1880,
      "Ġfar": 1881,
      "Ġmind": 1882,
      "Ġabove": 1883,
      "ilities": 1884,
      "Ġways": 1885,
      "Ġheart": 1886,
      "Ġfield": 1887,
      "Ġage": 1888,
      "hem": 1889,
      "Ġacross": 1890,
      "Ġthing": 1891,
      "Ġsafe": 1892,
      "astic": 1893,
      "orth": 1894,
      "ym": 1895,
      "Ġreact": 1896,
      "chan": 1897,
      "Ġnorm": 1898,
      "usion": 1899,
      "Ġeat": 1900,
      "Ġcheck": 1901,
      "ustain": 1902,
      "Ġdone": 1903,
      "Ġmarket": 1904,
      "Ġpie": 1905,
      "Ġvide": 1906,
      "ledge": 1907,
      "fect": 1908,
      "bo": 1909,
      "Ġgas": 1910,
      "verage": 1911,
      "side": 1912,
      "ived": 1913,
      "Ġgiven": 1914,
      "ission": 1915,
      "Ġprob": 1916,
      "Ġnever": 1917,
      "Ġagainst": 1918,
      "ĠZ": 1919,
      "lish": 1920,
      "ott": 1921,
      "ĠSp": 1922,
      "Ġaffect": 1923,
      "Ġbit": 1924,
      "iple": 1925,
      "ĠSome": 1926,
      "though": 1927,
      "Ġdifficult": 1928,
      "idence": 1929,
      "ffic": 1930,
      "Ġaccording": 1931,
      "Ġdamage": 1932,
      "com": 1933,
      "Ġflu": 1934,
      "estions": 1935,
      "Ġcompon": 1936,
      "Ġbegin": 1937,
      "Ġeye": 1938,
      "most": 1939,
      "ĠEn": 1940,
      "by": 1941,
      "ray": 1942,
      "anced": 1943,
      "amm": 1944,
      "Ġeffects": 1945,
      "omet": 1946,
      "Ġpublic": 1947,
      "joy": 1948,
      "Ġobs": 1949,
      "Ġpaper": 1950,
      "Ġskin": 1951,
      "Ġbook": 1952,
      "Ġloss": 1953,
      "Ġgre": 1954,
      "Ġsingle": 1955,
      "Ġhouse": 1956,
      "Ġrespons": 1957,
      "Ġclear": 1958,
      "Ġpast": 1959,
      "Ġregular": 1960,
      "Ġsays": 1961,
      "Ġabs": 1962,
      "Ġwhite": 1963,
      "yle": 1964,
      "Ġrepres": 1965,
      "wards": 1966,
      "Ġach": 1967,
      "Ġcool": 1968,
      "igns": 1969,
      "Ġbatter": 1970,
      "Ġparts": 1971,
      "Ġdiscuss": 1972,
      "Ġintern": 1973,
      "Ġhelps": 1974,
      "Ġelectric": 1975,
      "Ġer": 1976,
      "Ġterm": 1977,
      "Ġbenefits": 1978,
      "ibility": 1979,
      "Ġleft": 1980,
      "Ġchemical": 1981,
      "Ġland": 1982,
      "Ġcontrib": 1983,
      "Ġsubst": 1984,
      "Ġphysical": 1985,
      "Ġdetail": 1986,
      "ĠCol": 1987,
      "Ġpopular": 1988,
      "Ġlooking": 1989,
      "ĠYour": 1990,
      "Ġfactors": 1991,
      "Ġsource": 1992,
      "âĢĵ": 1993,
      "Ġwr": 1994,
      "12": 1995,
      "uals": 1996,
      "Ġclose": 1997,
      "Ġunderstanding": 1998,
      "ĠBl": 1999,
      "Ġresearc": 2000,
      "Ġwide": 2001,
      "ER": 2002,
      "Ġcomplex": 2003,
      "lement": 2004,
      "Ġview": 2005,
      "ploy": 2006,
      "for": 2007,
      "ptoms": 2008,
      "ising": 2009,
      "pro": 2010,
      "ĠPh": 2011,
      "Ġtraining": 2012,
      "resh": 2013,
      "avor": 2014,
      "Ġdesigned": 2015,
      "ĠâĢĶ": 2016,
      "....": 2017,
      "Ġmass": 2018,
      "Ġeither": 2019,
      "ensive": 2020,
      "raft": 2021,
      "Ġcondition": 2022,
      "Ġbal": 2023,
      "Ġnet": 2024,
      "ification": 2025,
      "lection": 2026,
      "ina": 2027,
      "Ġamong": 2028,
      "Ġclimate": 2029,
      "Ġweek": 2030,
      "Ġoffer": 2031,
      "Ġexpect": 2032,
      "Ġdeg": 2033,
      "ruction": 2034,
      "Ġfurther": 2035,
      "Ġonce": 2036,
      "ĠOr": 2037,
      "To": 2038,
      "ufact": 2039,
      "Ġdescrib": 2040,
      "Ġhold": 2041,
      "Ġcru": 2042,
      "Ġproduce": 2043,
      "ope": 2044,
      "Ġthin": 2045,
      "Ġquestion": 2046,
      "Ġstress": 2047,
      "orts": 2048,
      "Ġenjoy": 2049,
      "ystem": 2050,
      "alf": 2051,
      "Ġtoday": 2052,
      "Ġprovides": 2053,
      "Ġallows": 2054,
      "sh": 2055,
      "angu": 2056,
      "ĠUS": 2057,
      "Ġindic": 2058,
      "Ġability": 2059,
      "Ġwhether": 2060,
      "Ġcomputer": 2061,
      "Ġstop": 2062,
      "Ġegg": 2063,
      "like": 2064,
      "ortun": 2065,
      "Ġspeed": 2066,
      "Ġanimal": 2067,
      "Ġpercent": 2068,
      "ready": 2069,
      "Ġfall": 2070,
      "ae": 2071,
      "Ġvers": 2072,
      "Ġ30": 2073,
      "Ġgetting": 2074,
      "ĠOn": 2075,
      "Ġgame": 2076,
      "man": 2077,
      "ĠInst": 2078,
      "idd": 2079,
      "Ġwild": 2080,
      "Ġcarbon": 2081,
      "lished": 2082,
      "Ġskills": 2083,
      "Ġinteract": 2084,
      "istic": 2085,
      "raph": 2086,
      "Ġscience": 2087,
      "For": 2088,
      "Ġmatter": 2089,
      "Ġill": 2090,
      "ery": 2091,
      "Ġauthor": 2092,
      "Ġpet": 2093,
      "Ġdifference": 2094,
      "Ġwood": 2095,
      "Ġnecessary": 2096,
      "Wh": 2097,
      "Ġveh": 2098,
      "ming": 2099,
      "ales": 2100,
      "Ġhyd": 2101,
      "Ġenh": 2102,
      "Ġblack": 2103,
      "Ġvariety": 2104,
      "Ġcoll": 2105,
      "Ġdraw": 2106,
      "hing": 2107,
      "Ġparent": 2108,
      "Ġbelow": 2109,
      "ength": 2110,
      "mit": 2111,
      "ik": 2112,
      "Ġlif": 2113,
      "ĠOne": 2114,
      "Ġstructure": 2115,
      "Ġsmo": 2116,
      "ried": 2117,
      "Ġmechan": 2118,
      "ĠEng": 2119,
      "aching": 2120,
      "Ġbrain": 2121,
      "Ġexperien": 2122,
      "itch": 2123,
      "ĠAI": 2124,
      "Ġ15": 2125,
      "Ġperformance": 2126,
      "Ġpurp": 2127,
      "lying": 2128,
      "Ġfu": 2129,
      "ird": 2130,
      "rel": 2131,
      "ĠIm": 2132,
      "Ġtell": 2133,
      "Ġcrit": 2134,
      "Ġindividual": 2135,
      "Ġbacter": 2136,
      "Ġalready": 2137,
      "Ġselect": 2138,
      "Ġlove": 2139,
      "Ġhours": 2140,
      "Ġneeded": 2141,
      "edi": 2142,
      "Ġconnect": 2143,
      "aken": 2144,
      "Ġveget": 2145,
      "leep": 2146,
      "Ġimage": 2147,
      "iques": 2148,
      "Ġconcer": 2149,
      "Ġdoing": 2150,
      "Ġpersonal": 2151,
      "ores": 2152,
      "rate": 2153,
      "Ġcommunity": 2154,
      "Ġtree": 2155,
      "ument": 2156,
      "Ġinit": 2157,
      "Ġglob": 2158,
      "Ġfeatures": 2159,
      "Ġknowledge": 2160,
      "Ġsafety": 2161,
      "Ġcontent": 2162,
      "ney": 2163,
      "Ġexist": 2164,
      "Ġox": 2165,
      "ask": 2166,
      "Ġevent": 2167,
      "utions": 2168,
      "overed": 2169,
      "Ġfru": 2170,
      "Ġhistory": 2171,
      "eral": 2172,
      "Ch": 2173,
      "Ġindustry": 2174,
      "____": 2175,
      "rown": 2176,
      "ysis": 2177,
      "Ġresist": 2178,
      "Ġsn": 2179,
      "erence": 2180,
      "Ġrecord": 2181,
      "Ġhappen": 2182,
      "Ġrate": 2183,
      "ĠNo": 2184,
      "Ġpath": 2185,
      "Ġbuy": 2186,
      "ĠAll": 2187,
      "Ġmix": 2188,
      "Ġsustain": 2189,
      "just": 2190,
      "igure": 2191,
      "ront": 2192,
      "ditional": 2193,
      "ograp": 2194,
      "ule": 2195,
      "Ġmo": 2196,
      "Ġever": 2197,
      "Ġleaves": 2198,
      "Ġask": 2199,
      "Ġemb": 2200,
      "Ġrequired": 2201,
      "Ġhot": 2202,
      "osing": 2203,
      "Ġsymptoms": 2204,
      "Ġseen": 2205,
      "ilt": 2206,
      "Ġtot": 2207,
      "Ġmanufact": 2208,
      "vert": 2209,
      "Ġaddress": 2210,
      "Ġonline": 2211,
      "Ġfat": 2212,
      "Ġstrateg": 2213,
      "Ġbreak": 2214,
      "app": 2215,
      "Ġtools": 2216,
      "Ġsuper": 2217,
      "ply": 2218,
      "Ġinside": 2219,
      "ows": 2220,
      "Ġ100": 2221,
      "ĠEar": 2222,
      "Ġtar": 2223,
      "ibr": 2224,
      "Ġquestions": 2225,
      "Ġprop": 2226,
      "nam": 2227,
      "iment": 2228,
      "Ġchalleng": 2229,
      "Ġlonger": 2230,
      "Ġminim": 2231,
      "Ġneg": 2232,
      "Ġarticle": 2233,
      "Ġactivities": 2234,
      "conom": 2235,
      "upp": 2236,
      "Ġbuilding": 2237,
      "Ġslow": 2238,
      "Ġfarm": 2239,
      "Ġmethods": 2240,
      "aling": 2241,
      "Ġself": 2242,
      "aps": 2243,
      "Ġuser": 2244,
      "Ġbar": 2245,
      "30": 2246,
      "Ġresearchers": 2247,
      "Ġcorrect": 2248,
      "fully": 2249,
      "Ġpay": 2250,
      "reng": 2251,
      "ĠQu": 2252,
      "sel": 2253,
      "ung": 2254,
      "Ġhumans": 2255,
      "Ġenvironmental": 2256,
      "Ġidea": 2257,
      "Ġgeneral": 2258,
      "use": 2259,
      "ura": 2260,
      "Ġcompany": 2261,
      "way": 2262,
      "Ġpositive": 2263,
      "Ġopportun": 2264,
      "gar": 2265,
      "Ġcontact": 2266,
      "Ġactivity": 2267,
      "nces": 2268,
      "Ġwhole": 2269,
      "ites": 2270,
      "Ġprec": 2271,
      "aving": 2272,
      "Ġpan": 2273,
      "Ġdeep": 2274,
      "**": 2275,
      "Ġtaking": 2276,
      "Ġbehavior": 2277,
      "Ġapproach": 2278,
      "11": 2279,
      "Ġelectr": 2280,
      "ĠAmerican": 2281,
      "ervation": 2282,
      "Ġmat": 2283,
      "Ġport": 2284,
      "Ġnature": 2285,
      "Ġrelations": 2286,
      "inary": 2287,
      "Ġindividuals": 2288,
      "Ġmole": 2289,
      "Ġliving": 2290,
      "Ġposition": 2291,
      "ctor": 2292,
      "Ġtypically": 2293,
      "Ġtrees": 2294,
      "Ġmonths": 2295,
      "Ġappear": 2296,
      "Ġsam": 2297,
      "Ġencou": 2298,
      "Ġperfect": 2299,
      "Ġprint": 2300,
      "ties": 2301,
      "Ġlaw": 2302,
      "illed": 2303,
      "Ġseason": 2304,
      "Ġeasily": 2305,
      "Ġtravel": 2306,
      "ume": 2307,
      "Ġexerc": 2308,
      "Ġinstall": 2309,
      "idered": 2310,
      "Ġmention": 2311,
      "Ġremov": 2312,
      "Ġintrodu": 2313,
      "erve": 2314,
      "Ġvac": 2315,
      "room": 2316,
      "selves": 2317,
      "Ġsomeone": 2318,
      "Ġfit": 2319,
      "amp": 2320,
      "Ġut": 2321,
      "ĠCent": 2322,
      "Ġsitu": 2323,
      "Ġmagn": 2324,
      "cell": 2325,
      "Ġcases": 2326,
      "Ġsqu": 2327,
      "Al": 2328,
      "iency": 2329,
      "Ġyoung": 2330,
      "Ġhor": 2331,
      "ises": 2332,
      "ding": 2333,
      "urs": 2334,
      "Ġcancer": 2335,
      "het": 2336,
      "ĠWor": 2337,
      "Ġassociated": 2338,
      "Ġanswer": 2339,
      "aches": 2340,
      "ĠNe": 2341,
      "Ġjob": 2342,
      "Ġgrowing": 2343,
      "Ġisn": 2344,
      "based": 2345,
      "Ġentire": 2346,
      "Ġprep": 2347,
      "Ġetc": 2348,
      "Ġtechniques": 2349,
      "Ġinteg": 2350,
      "Ġla": 2351,
      "ze": 2352,
      "reme": 2353,
      "Ġjour": 2354,
      "amin": 2355,
      "Ġmoney": 2356,
      "osis": 2357,
      "verse": 2358,
      "Ġextra": 2359,
      "Ġminutes": 2360,
      "Ġconsidered": 2361,
      "Ġoverall": 2362,
      "Ġbring": 2363,
      "Ġcrucial": 2364,
      "Ġgot": 2365,
      "Ġmeet": 2366,
      "Ġmanagement": 2367,
      "Ġmillion": 2368,
      "Ġvideo": 2369,
      "uck": 2370,
      "Ġcollect": 2371,
      "iation": 2372,
      "Ġlangu": 2373,
      "Ġmen": 2374,
      "Ġresources": 2375,
      "Ġrather": 2376,
      "ulations": 2377,
      "Ġroom": 2378,
      "Ġsolution": 2379,
      "Ġlater": 2380,
      "Ġpatients": 2381,
      "Ġaud": 2382,
      "Ġharm": 2383,
      "rams": 2384,
      "Ġwall": 2385,
      "aced": 2386,
      "eter": 2387,
      "Ġmedical": 2388,
      "Ġrecogn": 2389,
      "So": 2390,
      "Ġrepresent": 2391,
      "ĠX": 2392,
      "IN": 2393,
      "rug": 2394,
      "Ġcreating": 2395,
      "Ġsepar": 2396,
      "ĠWhile": 2397,
      "Ġpoll": 2398,
      "Ġinflu": 2399,
      "lor": 2400,
      "Ġstay": 2401,
      "uit": 2402,
      "ĠDr": 2403,
      "Ġgover": 2404,
      "Ġuses": 2405,
      "ene": 2406,
      "Ġprimary": 2407,
      "Ġcold": 2408,
      "ese": 2409,
      "ĠShe": 2410,
      "Ġhowever": 2411,
      "Ġcover": 2412,
      "Ġstreng": 2413,
      "Ġing": 2414,
      "Ġtarget": 2415,
      "ges": 2416,
      "Ġwomen": 2417,
      "Ġbeaut": 2418,
      "Ġcapt": 2419,
      "ival": 2420,
      "Th": 2421,
      "Ġdevice": 2422,
      "Ġwar": 2423,
      "Ġpopulation": 2424,
      "Ġchoose": 2425,
      "ĠLe": 2426,
      "val": 2427,
      "Ġaverage": 2428,
      "Ġquickly": 2429,
      "Ġthroughout": 2430,
      "sect": 2431,
      "Ġrelationship": 2432,
      "ES": 2433,
      "Ġpack": 2434,
      "play": 2435,
      "Ġexc": 2436,
      "Ġservice": 2437,
      "Ġyourself": 2438,
      "Ġprofessional": 2439,
      "Ġprotein": 2440,
      "Ġcomfort": 2441,
      "eding": 2442,
      "ging": 2443,
      "Ġconcept": 2444,
      "Ġsense": 2445,
      "oll": 2446,
      "ounds": 2447,
      "aily": 2448,
      "Ġfund": 2449,
      "Ġemploy": 2450,
      "ĠCO": 2451,
      "aged": 2452,
      "Ġappl": 2453,
      "ĠCar": 2454,
      "Ġidentify": 2455,
      "xim": 2456,
      "Ġsleep": 2457,
      "uff": 2458,
      "onst": 2459,
      "Ġeconom": 2460,
      "lex": 2461,
      "Ġthought": 2462,
      "Ġmultiple": 2463,
      "Ġincludes": 2464,
      "icles": 2465,
      "Ġacid": 2466,
      "ĠComp": 2467,
      "era": 2468,
      "Ġoptions": 2469,
      "Ġsubject": 2470,
      "erous": 2471,
      "Ġtakes": 2472,
      "15": 2473,
      "Ġconsist": 2474,
      "Ġincreased": 2475,
      "Ġpractice": 2476,
      "rated": 2477,
      "Ġbirds": 2478,
      "cks": 2479,
      "Ġoutside": 2480,
      "Ġprobably": 2481,
      "Ġrelated": 2482,
      "Ġnormal": 2483,
      "Ġdeveloped": 2484,
      "ĠComm": 2485,
      "yl": 2486,
      "Ġcreated": 2487,
      "Ġcook": 2488,
      "Ġec": 2489,
      "AT": 2490,
      "Ġfoot": 2491,
      "Ġadult": 2492,
      "earch": 2493,
      "Ġeyes": 2494,
      "Ġheav": 2495,
      "Ġcannot": 2496,
      "Ġbad": 2497,
      "Ġhalf": 2498,
      "Ġstudies": 2499,
      "Ġcop": 2500,
      "Ġsimply": 2501,
      "ils": 2502,
      "Ġ50": 2503,
      "Ġcompan": 2504,
      "Ġwebs": 2505,
      "Ġissue": 2506,
      "âĢĿ": 2507,
      "Ġstra": 2508,
      "Ġquant": 2509,
      "Ġur": 2510,
      "Ġgovern": 2511,
      "mb": 2512,
      "Ġmachine": 2513,
      "rict": 2514,
      "Ġtend": 2515,
      "lease": 2516,
      "ipment": 2517,
      "ĠDo": 2518,
      "Ġfeet": 2519,
      "Ġoptim": 2520,
      "Ġcompet": 2521,
      "aff": 2522,
      "Ġcauses": 2523,
      "mon": 2524,
      "Ġfram": 2525,
      "Ġalmost": 2526,
      "Ġsat": 2527,
      "Ġbur": 2528,
      "ellow": 2529,
      "Ġfast": 2530,
      "Ġnight": 2531,
      "Ġmodern": 2532,
      "urope": 2533,
      "Ġparticip": 2534,
      "Ġrob": 2535,
      "Ġlayer": 2536,
      "Ġservices": 2537,
      "cre": 2538,
      "ively": 2539,
      "cies": 2540,
      "AR": 2541,
      "Ġlog": 2542,
      "Ġfoods": 2543,
      "Ġann": 2544,
      "Ġelements": 2545,
      "Ġeducation": 2546,
      "Ġsomet": 2547,
      "Ġteac": 2548,
      "Ġinstead": 2549,
      "Ġremain": 2550,
      "ĠUnited": 2551,
      "Ġconduct": 2552,
      "Ġlength": 2553,
      "elling": 2554,
      "Ġwaste": 2555,
      "onse": 2556,
      "nov": 2557,
      "Ġfive": 2558,
      "Ġlarger": 2559,
      "Ġsil": 2560,
      "ured": 2561,
      "augh": 2562,
      "ift": 2563,
      "Ġglobal": 2564,
      "Ġattention": 2565,
      "Ġapplications": 2566,
      "ison": 2567,
      "Ġshape": 2568,
      "Ġwinter": 2569,
      "Ġincreasing": 2570,
      "itor": 2571,
      "Ġpict": 2572,
      "abor": 2573,
      "urity": 2574,
      "ĠTr": 2575,
      "Ġaltern": 2576,
      "min": 2577,
      "asc": 2578,
      "Ġcountry": 2579,
      "aim": 2580,
      "Ġpri": 2581,
      "Ġshows": 2582,
      "Ġautom": 2583,
      "Ġfuel": 2584,
      "Ġtotal": 2585,
      "Ġang": 2586,
      "Ġtraditional": 2587,
      "Ġbab": 2588,
      "Ġaccount": 2589,
      "Ġdetermine": 2590,
      "Ġfail": 2591,
      "itud": 2592,
      "Ġdom": 2593,
      "Ġcompared": 2594,
      "Ġextreme": 2595,
      "ED": 2596,
      "oh": 2597,
      "Ġshown": 2598,
      "Ġestab": 2599,
      "Ġscientists": 2600,
      "ĠHere": 2601,
      "ĠMed": 2602,
      "Ġ199": 2603,
      "Ġhabit": 2604,
      "Ġge": 2605,
      "rogen": 2606,
      "Ġsite": 2607,
      "ians": 2608,
      "ĠNational": 2609,
      "Ġwa": 2610,
      "Ġsometimes": 2611,
      "Ġspread": 2612,
      "ropri": 2613,
      "Ġefficient": 2614,
      "sy": 2615,
      "Ġweather": 2616,
      "ners": 2617,
      "Ġbasic": 2618,
      "Ġbattery": 2619,
      "ĠUs": 2620,
      "Ġproviding": 2621,
      "asons": 2622,
      "Ġadvant": 2623,
      "Ġface": 2624,
      "Ġeverything": 2625,
      "Ġfresh": 2626,
      "\".": 2627,
      "Ġyet": 2628,
      "ograph": 2629,
      "Ġcra": 2630,
      "Ġexplain": 2631,
      "Ġchoice": 2632,
      "Ġcaused": 2633,
      "Ġdevices": 2634,
      "Ġtrue": 2635,
      "Ġremove": 2636,
      "acks": 2637,
      "ĠCont": 2638,
      "Ġanything": 2639,
      "Ġoffers": 2640,
      "ned": 2641,
      "ctions": 2642,
      "umb": 2643,
      "ules": 2644,
      "cean": 2645,
      "Ġadjust": 2646,
      "Ġfem": 2647,
      "Ġrelative": 2648,
      "ĠApp": 2649,
      "gest": 2650,
      "Ġcomponents": 2651,
      "Ġgenerally": 2652,
      "ground": 2653,
      "where": 2654,
      "Ġseem": 2655,
      "Ġadapt": 2656,
      "Ġquite": 2657,
      "ged": 2658,
      "Ġcontinu": 2659,
      "Ġtaken": 2660,
      "ĠCal": 2661,
      "Ġnutri": 2662,
      "Ġwon": 2663,
      "Ġstory": 2664,
      "Ġprevious": 2665,
      "Ġmedic": 2666,
      "Ad": 2667,
      "Ġanalysis": 2668,
      "Ġfib": 2669,
      "Ġsurv": 2670,
      "Ġ16": 2671,
      "rip": 2672,
      "rig": 2673,
      "ĠEurope": 2674,
      "Ġstandard": 2675,
      "Ġgroups": 2676,
      "isms": 2677,
      "ley": 2678,
      "izes": 2679,
      "Ġbacteria": 2680,
      "Ġmetal": 2681,
      "rad": 2682,
      "ĠEarth": 2683,
      "icy": 2684,
      "Ġexact": 2685,
      "ronic": 2686,
      "Ġterms": 2687,
      "ement": 2688,
      "Ġones": 2689,
      "OT": 2690,
      "imately": 2691,
      "Ġstarted": 2692,
      "Ġfront": 2693,
      "One": 2694,
      "hib": 2695,
      "16": 2696,
      "istics": 2697,
      "Ġsuit": 2698,
      "Ġbott": 2699,
      "Ġsoftware": 2700,
      "ON": 2701,
      "AS": 2702,
      "icial": 2703,
      "ched": 2704,
      "Ġrot": 2705,
      "go": 2706,
      "Ġequipment": 2707,
      "Ġfire": 2708,
      "rapy": 2709,
      "ĠAf": 2710,
      "Ġshare": 2711,
      "ension": 2712,
      "Ġbox": 2713,
      "Ġinj": 2714,
      "Ġwords": 2715,
      "ests": 2716,
      "18": 2717,
      "Ġlanguage": 2718,
      "ĠCons": 2719,
      "ights": 2720,
      "Ġdark": 2721,
      "Ġcode": 2722,
      "osition": 2723,
      "Ġtrying": 2724,
      "Ġassess": 2725,
      "oses": 2726,
      "ext": 2727,
      "ĠAfter": 2728,
      "Ġthemselves": 2729,
      "Ġlo": 2730,
      "Ġmom": 2731,
      "hern": 2732,
      "Ġitself": 2733,
      "Ġprovided": 2734,
      "Ġaspect": 2735,
      "Ġbelieve": 2736,
      "ino": 2737,
      "Ġregard": 2738,
      "Ġago": 2739,
      "ecause": 2740,
      "Ġpurpose": 2741,
      "li": 2742,
      "Ġsummer": 2743,
      "Ġproperties": 2744,
      "Ġdy": 2745,
      "ditionally": 2746,
      "Ġtable": 2747,
      "Ġ202": 2748,
      "ography": 2749,
      "Ġsteps": 2750,
      "Ġdigital": 2751,
      "arily": 2752,
      "Ġball": 2753,
      "Ġarr": 2754,
      "acy": 2755,
      "Ġbelie": 2756,
      "ĠAm": 2757,
      "14": 2758,
      "Ġreading": 2759,
      "Ġdistrib": 2760,
      "Ġbase": 2761,
      "Ġkids": 2762,
      "Ġdoc": 2763,
      "Ġrequires": 2764,
      "Ġ14": 2765,
      "Ġdrug": 2766,
      "ening": 2767,
      "Ġobserv": 2768,
      "Ġsea": 2769,
      "Ġresponse": 2770,
      "Ġgain": 2771,
      "Ġachieve": 2772,
      "ID": 2773,
      "aries": 2774,
      "Ġdaily": 2775,
      "Ġir": 2776,
      "Ġload": 2777,
      "Ġemot": 2778,
      "ĠMan": 2779,
      "Ġmentioned": 2780,
      "ĠDNA": 2781,
      "Ġice": 2782,
      "Ġforce": 2783,
      "ĠDes": 2784,
      "wh": 2785,
      "Ġx": 2786,
      "Ġswe": 2787,
      "Ġmeat": 2788,
      "Ġrout": 2789,
      "alking": 2790,
      "ĠCo": 2791,
      "ĠHealth": 2792,
      "Ġsmaller": 2793,
      "Ġadded": 2794,
      "Ġadditional": 2795,
      "Pro": 2796,
      "Ġaction": 2797,
      "ipe": 2798,
      "Ġglass": 2799,
      "Ġplastic": 2800,
      "iot": 2801,
      "Ġ+": 2802,
      "Ġbehind": 2803,
      "Ġmilk": 2804,
      "Ġexplore": 2805,
      "Ġparticularly": 2806,
      "ences": 2807,
      "Ġfamil": 2808,
      "tenance": 2809,
      "life": 2810,
      "Ġdefin": 2811,
      "Ġmoist": 2812,
      "Ġregion": 2813,
      "Ġdiseases": 2814,
      "ĠStates": 2815,
      "ĠPr": 2816,
      "Ġeating": 2817,
      "osure": 2818,
      "Ġlink": 2819,
      "Ġcard": 2820,
      "Ġmaxim": 2821,
      "'d": 2822,
      "Ġwond": 2823,
      "ccording": 2824,
      "emic": 2825,
      "Ġoption": 2826,
      "Ġtiss": 2827,
      "ricult": 2828,
      "Â°": 2829,
      "Ġtou": 2830,
      "Ġblue": 2831,
      "pid": 2832,
      "Ġdiagn": 2833,
      "Ġcolors": 2834,
      "Ġsignal": 2835,
      "Ġpoints": 2836,
      "Ġdirectly": 2837,
      "Ġinsect": 2838,
      "time": 2839,
      "nter": 2840,
      "inct": 2841,
      "Ġassist": 2842,
      "Ġoutput": 2843,
      "iring": 2844,
      "Ġtowards": 2845,
      "Ex": 2846,
      "Ġhighly": 2847,
      "Ġcapac": 2848,
      "Ġevidence": 2849,
      "Ġleading": 2850,
      "Ġ/": 2851,
      "Ġmess": 2852,
      "Ġimplement": 2853,
      "iding": 2854,
      "Why": 2855,
      "oon": 2856,
      "ai": 2857,
      "Ġeggs": 2858,
      "iddle": 2859,
      "Ġingred": 2860,
      "ulate": 2861,
      "water": 2862,
      "Ġnegative": 2863,
      "oles": 2864,
      "Ġparents": 2865,
      "ĠMay": 2866,
      "oph": 2867,
      "Ġdest": 2868,
      "Ġinvolved": 2869,
      "Ġvehicle": 2870,
      "ĠAust": 2871,
      "ĠAfric": 2872,
      "ĠPre": 2873,
      "rition": 2874,
      "Ġaware": 2875,
      "sequ": 2876,
      "Ġreview": 2877,
      "Ġ11": 2878,
      "ĠStud": 2879,
      "Ġgenetic": 2880,
      "Ġcontinue": 2881,
      "reg": 2882,
      "ĠOf": 2883,
      "Ġemerg": 2884,
      "Ġbul": 2885,
      "isc": 2886,
      "Ġweeks": 2887,
      "ades": 2888,
      "Ġconcent": 2889,
      "Ġrespect": 2890,
      "Ġapplication": 2891,
      "Ġstudent": 2892,
      "But": 2893,
      "Ġpoly": 2894,
      "Ġmodels": 2895,
      "ĠâĢľ": 2896,
      "Ġreach": 2897,
      "Ġappropri": 2898,
      "ĠNorth": 2899,
      "ror": 2900,
      "Ġsearch": 2901,
      "Ġproduced": 2902,
      "vant": 2903,
      "Ġcats": 2904,
      "Ġdou": 2905,
      "Ġsources": 2906,
      "Ġful": 2907,
      "Ġsugar": 2908,
      "illing": 2909,
      "yp": 2910,
      "Ġstat": 2911,
      "Ġsolar": 2912,
      "clusion": 2913,
      "back": 2914,
      "alu": 2915,
      "Ġhar": 2916,
      "ĠNot": 2917,
      "ĠMy": 2918,
      "head": 2919,
      "ĠFe": 2920,
      "ription": 2921,
      "rist": 2922,
      "Ġimages": 2923,
      "fl": 2924,
      "Ġeveryone": 2925,
      "Ġpurch": 2926,
      "Ġ,": 2927,
      "vere": 2928,
      "Ġkit": 2929,
      "Ġrecommend": 2930,
      "Ġmembers": 2931,
      "Ġinput": 2932,
      "Ġlives": 2933,
      "artment": 2934,
      "itation": 2935,
      "ĠGu": 2936,
      "Ġvit": 2937,
      "Ġcalcul": 2938,
      "Ġdecre": 2939,
      "anks": 2940,
      "wor": 2941,
      "new": 2942,
      "ĠInt": 2943,
      "ma": 2944,
      "ĠMe": 2945,
      "Ġteeth": 2946,
      "nal": 2947,
      "rid": 2948,
      "Ġlands": 2949,
      "Ġ25": 2950,
      "Ġtransform": 2951,
      "Ġhun": 2952,
      "Ġmor": 2953,
      "Ġstrength": 2954,
      "Ġrecommended": 2955,
      "Ġeasier": 2956,
      "ĠGen": 2957,
      "ĠKe": 2958,
      "Ġforest": 2959,
      "ops": 2960,
      "ĠAre": 2961,
      "Ġrecent": 2962,
      "Ġguide": 2963,
      "orpor": 2964,
      "Ġhair": 2965,
      "Ġblock": 2966,
      "unch": 2967,
      "Ġpret": 2968,
      "ĠYes": 2969,
      "Ġroad": 2970,
      "Ġconstant": 2971,
      "Ġgoal": 2972,
      "Ġstore": 2973,
      "Ġevents": 2974,
      "13": 2975,
      "Ġelse": 2976,
      "Ġitems": 2977,
      "Ġcountries": 2978,
      "Ġdidn": 2979,
      "Ġtransport": 2980,
      "Sh": 2981,
      "cles": 2982,
      "Ġprior": 2983,
      "Ġwebsite": 2984,
      "Ġtips": 2985,
      "Ġliqu": 2986,
      "Ġearth": 2987,
      "Ġnumbers": 2988,
      "Ġreplace": 2989,
      "Ġalg": 2990,
      "ĠSchool": 2991,
      "Ġbed": 2992,
      "Ġlines": 2993,
      "AC": 2994,
      "Ġaim": 2995,
      "Ġscreen": 2996,
      "Ġprocesses": 2997,
      "Ġword": 2998,
      "aur": 2999,
      "Ġdeath": 3000,
      "Ġunit": 3001,
      "Ġcompletely": 3002,
      "Ġexercise": 3003,
      "ĠAss": 3004,
      "oming": 3005,
      "Ġuseful": 3006,
      "Ġtemperatures": 3007,
      "ygen": 3008,
      "att": 3009,
      "Ġgreater": 3010,
      "Ġrunning": 3011,
      "Ġspeak": 3012,
      "Ġdang": 3013,
      "Ġmeaning": 3014,
      "Ġcontroll": 3015,
      "rast": 3016,
      "ancy": 3017,
      "aks": 3018,
      "vest": 3019,
      "Ġflowers": 3020,
      "Ġsand": 3021,
      "terns": 3022,
      "Ġmovement": 3023,
      "Ġbrand": 3024,
      "Ġactive": 3025,
      "ĠMost": 3026,
      "Ġseeds": 3027,
      "irm": 3028,
      "Ġprefer": 3029,
      "ĠScience": 3030,
      "ellig": 3031,
      "Is": 3032,
      "Ġsupply": 3033,
      "ocks": 3034,
      "Ġsequ": 3035,
      "Ġbreat": 3036,
      "issions": 3037,
      "17": 3038,
      "Ġbalance": 3039,
      "come": 3040,
      "Ġevolution": 3041,
      "Ġpatient": 3042,
      "ĠMore": 3043,
      "Ġfix": 3044,
      "set": 3045,
      "Ġinitial": 3046,
      "ociety": 3047,
      "pper": 3048,
      "icate": 3049,
      "Ġserious": 3050,
      "Ġanaly": 3051,
      "Ġfert": 3052,
      "Ġwear": 3053,
      "Ġ17": 3054,
      "epend": 3055,
      "ensity": 3056,
      "Ġmedia": 3057,
      "Ġrain": 3058,
      "Ġproperly": 3059,
      "Ġ--": 3060,
      "iles": 3061,
      "Ġvalues": 3062,
      "Ġfriend": 3063,
      "orage": 3064,
      "rial": 3065,
      "Ġprinc": 3066,
      "IS": 3067,
      "Ġrefer": 3068,
      "Ġseries": 3069,
      "Ġcross": 3070,
      "ĠĠĠĠ": 3071,
      "itute": 3072,
      "abric": 3073,
      "rees": 3074,
      "AN": 3075,
      "Ġspring": 3076,
      "ript": 3077,
      "ucle": 3078,
      "Ġchallenges": 3079,
      "abet": 3080,
      "Ġtalk": 3081,
      "load": 3082,
      "Ġreflect": 3083,
      "bol": 3084,
      "Ġefficiency": 3085,
      "Ġclaim": 3086,
      "Ġvisual": 3087,
      "Ġstyle": 3088,
      "ĠFrom": 3089,
      "uted": 3090,
      ".)": 3091,
      "Ġpiece": 3092,
      "Ġcontains": 3093,
      "iful": 3094,
      "ections": 3095,
      "ster": 3096,
      "Ġthreat": 3097,
      "Ġsix": 3098,
      "Ġsus": 3099,
      "Ġgoes": 3100,
      "EN": 3101,
      "Ġcarry": 3102,
      "OR": 3103,
      "Ġprograms": 3104,
      "imin": 3105,
      "Ġusers": 3106,
      "Ġcommunication": 3107,
      "Ġ13": 3108,
      "Ġguid": 3109,
      "Ġpatterns": 3110,
      "Ġcamera": 3111,
      "Ġorganic": 3112,
      "Ġscientific": 3113,
      "Ġforms": 3114,
      "Ġbenefit": 3115,
      "Ġvisit": 3116,
      "ached": 3117,
      "Ġcritical": 3118,
      "Ġmoving": 3119,
      "Ġvirus": 3120,
      "Ġlocation": 3121,
      "Ġdrive": 3122,
      "Can": 3123,
      "Ġbuilt": 3124,
      "Ġcosts": 3125,
      "Ġabsor": 3126,
      "Ġprojects": 3127,
      "ĠDep": 3128,
      "Ġthick": 3129,
      "Ġarg": 3130,
      "tings": 3131,
      "sych": 3132,
      "fficient": 3133,
      "hens": 3134,
      "Ġcompanies": 3135,
      "oe": 3136,
      "Be": 3137,
      "Ġhands": 3138,
      "Ġinnov": 3139,
      "Ġmusic": 3140,
      "Ġgovernment": 3141,
      "Ġplat": 3142,
      "Ġimmedi": 3143,
      "elt": 3144,
      "atives": 3145,
      "ĠSouth": 3146,
      "Ġdepending": 3147,
      "Ġprice": 3148,
      "Ġmotor": 3149,
      "Ġ40": 3150,
      "ĠGo": 3151,
      "Ġallowing": 3152,
      "Ġinstruct": 3153,
      "sp": 3154,
      "25": 3155,
      "Ġtheory": 3156,
      "ightly": 3157,
      "40": 3158,
      "Ġfriends": 3159,
      "ping": 3160,
      "Con": 3161,
      "rs": 3162,
      "Ġdeal": 3163,
      "Ġcry": 3164,
      "Ġdirection": 3165,
      "\",": 3166,
      "Ġmemory": 3167,
      "Ġdemonst": 3168,
      "Ġreasons": 3169,
      "Ġdeveloping": 3170,
      "rec": 3171,
      "Ġwatch": 3172,
      "Ġleave": 3173,
      "Cl": 3174,
      "board": 3175,
      "ĠAmerica": 3176,
      "airs": 3177,
      "Ġsurround": 3178,
      "Ġfruit": 3179,
      "Ġseems": 3180,
      "wise": 3181,
      "Ġcommonly": 3182,
      "overy": 3183,
      "Ġenhance": 3184,
      "Ġhappens": 3185,
      "Ġvacc": 3186,
      "Ġbird": 3187,
      "Ġattract": 3188,
      "rum": 3189,
      "Ġappropriate": 3190,
      "ĠPe": 3191,
      "Ġgets": 3192,
      "term": 3193,
      "istry": 3194,
      "ĠMany": 3195,
      "ĠWhy": 3196,
      "ĠMar": 3197,
      "--------": 3198,
      "Ġchick": 3199,
      "ĠUse": 3200,
      "ĠAustral": 3201,
      "Ġlimited": 3202,
      "Ġprotection": 3203,
      "onds": 3204,
      "Ġmental": 3205,
      "Ġsuff": 3206,
      "Ġdisplay": 3207,
      "itude": 3208,
      "ĠThen": 3209,
      "Ġdistance": 3210,
      "Ġbag": 3211,
      "na": 3212,
      "iable": 3213,
      "Ġmaintenance": 3214,
      "ĠAb": 3215,
      "Ġdetect": 3216,
      "Ġpage": 3217,
      "rops": 3218,
      "odies": 3219,
      "cape": 3220,
      "rol": 3221,
      "ocol": 3222,
      "Ġgar": 3223,
      "ube": 3224,
      "Ġimportance": 3225,
      "uge": 3226,
      "Ġbecomes": 3227,
      "Ġfine": 3228,
      "60": 3229,
      "eration": 3230,
      "ĠWorld": 3231,
      "Ġresistance": 3232,
      "Ġther": 3233,
      "ĠResearch": 3234,
      "iny": 3235,
      "Ġobjects": 3236,
      "Ġvolt": 3237,
      "Ġoriginal": 3238,
      "Ġremember": 3239,
      "Ġstates": 3240,
      "mosp": 3241,
      "Ġcame": 3242,
      "Ġproced": 3243,
      "Ġnetwork": 3244,
      "Ġsigns": 3245,
      "Ġce": 3246,
      "Ġult": 3247,
      "Ġpretty": 3248,
      "Ġevalu": 3249,
      "Ġreturn": 3250,
      "Ġgrass": 3251,
      "Ġpublished": 3252,
      "ologies": 3253,
      "Ġelectrical": 3254,
      "Ġideas": 3255,
      "Ġcenter": 3256,
      "Ġvision": 3257,
      "Ġaccur": 3258,
      "Ġvary": 3259,
      "Ġupon": 3260,
      "Ġtail": 3261,
      "cient": 3262,
      "Ġutil": 3263,
      "asks": 3264,
      "Ġrare": 3265,
      "yond": 3266,
      "Ġsave": 3267,
      "Ġpractices": 3268,
      "Ġorigin": 3269,
      "Ġsoon": 3270,
      "Ġinfection": 3271,
      "aly": 3272,
      "ula": 3273,
      "Ġpick": 3274,
      "mission": 3275,
      "Ġbottom": 3276,
      "Ġpen": 3277,
      "Ġobtain": 3278,
      "Ġelement": 3279,
      "more": 3280,
      "Ġexcept": 3281,
      "Ġroot": 3282,
      "Ġcooking": 3283,
      "hol": 3284,
      "Ġbaby": 3285,
      "Ġseed": 3286,
      "Ġhost": 3287,
      "Ġexcess": 3288,
      "Ġdisord": 3289,
      "Ġmount": 3290,
      "Ġshap": 3291,
      "He": 3292,
      "Ġkn": 3293,
      "While": 3294,
      "Ġoxygen": 3295,
      "Ġlate": 3296,
      "Ġarch": 3297,
      "iate": 3298,
      "ero": 3299,
      "Ġcircuit": 3300,
      "Ġfavor": 3301,
      "Ġgives": 3302,
      "ĠChe": 3303,
      "Ġexcell": 3304,
      "irt": 3305,
      "zz": 3306,
      "Ġready": 3307,
      "Ġsustainable": 3308,
      "Ġrat": 3309,
      "Ġcity": 3310,
      "By": 3311,
      "Ġaccept": 3312,
      "ields": 3313,
      "ĠPer": 3314,
      "vey": 3315,
      "Ġver": 3316,
      "ky": 3317,
      "Ġimmune": 3318,
      "Ġwriting": 3319,
      "ran": 3320,
      "Ġlens": 3321,
      "Ġfabric": 3322,
      "Ġinvolves": 3323,
      "Ġbill": 3324,
      "Ġsection": 3325,
      "mber": 3326,
      "umin": 3327,
      "Ġreducing": 3328,
      "Ġpriv": 3329,
      "Ġ24": 3330,
      "With": 3331,
      "rage": 3332,
      "Ġideal": 3333,
      "ulated": 3334,
      "ĠReg": 3335,
      "Ġfile": 3336,
      "hood": 3337,
      "Ġcycle": 3338,
      "Ġsolutions": 3339,
      "ching": 3340,
      "Ġworth": 3341,
      "Ġthinking": 3342,
      "ls": 3343,
      "Ġplatform": 3344,
      "ĠIntern": 3345,
      "Ġmanufacture": 3346,
      "ogen": 3347,
      "Ġtesting": 3348,
      "Ġrequirements": 3349,
      "Ġresponsible": 3350,
      "care": 3351,
      "Ġexpress": 3352,
      "Ġhearing": 3353,
      "Ġhope": 3354,
      "isions": 3355,
      "cking": 3356,
      "These": 3357,
      "hold": 3358,
      "ros": 3359,
      "Ġjo": 3360,
      "Ġlack": 3361,
      "Ġstorage": 3362,
      "Ġsuitable": 3363,
      "Ġstage": 3364,
      "Ġimpl": 3365,
      "Ġdisp": 3366,
      "Ġantib": 3367,
      "Ġsignificantly": 3368,
      "Ġensuring": 3369,
      "oud": 3370,
      "Ġcolle": 3371,
      "Ġgold": 3372,
      "ball": 3373,
      "ony": 3374,
      "At": 3375,
      "Ġpow": 3376,
      "IT": 3377,
      "Ġlimit": 3378,
      "ĠAlso": 3379,
      "Ġvalu": 3380,
      "Ġsent": 3381,
      "Ġpull": 3382,
      "Ġstarting": 3383,
      "Ġcleaning": 3384,
      "ÂŃ": 3385,
      "ixt": 3386,
      "Ġrev": 3387,
      "ĠSm": 3388,
      "Ġfinal": 3389,
      "Ġ:": 3390,
      "IC": 3391,
      "Ġrich": 3392,
      "ĠOur": 3393,
      "Ġrock": 3394,
      "ĠNow": 3395,
      "den": 3396,
      "ha": 3397,
      "Ġprogress": 3398,
      "Ġinfl": 3399,
      "Ġthr": 3400,
      "hel": 3401,
      "Ġboard": 3402,
      "Ġnothing": 3403,
      "Ġcommit": 3404,
      "abetes": 3405,
      "âĢ¢": 3406,
      "Ġgames": 3407,
      "Ġweb": 3408,
      "ously": 3409,
      "ĠGe": 3410,
      "Ġconstruction": 3411,
      "craft": 3412,
      "ĠLet": 3413,
      "Ġbeautiful": 3414,
      "Ġinvestig": 3415,
      "char": 3416,
      "Ġmiss": 3417,
      "Ġnutrients": 3418,
      "ifically": 3419,
      "And": 3420,
      "Ġfactor": 3421,
      "Ġsevere": 3422,
      "empt": 3423,
      "rought": 3424,
      "ana": 3425,
      "Ġroll": 3426,
      "Ġliquid": 3427,
      "rehens": 3428,
      "AL": 3429,
      "bor": 3430,
      "Ġdri": 3431,
      "Ġpowerful": 3432,
      "80": 3433,
      "Ġpoor": 3434,
      "Ġspot": 3435,
      "Ġtook": 3436,
      "Ġoutd": 3437,
      "ffect": 3438,
      "Ġingredients": 3439,
      "Ġatmosp": 3440,
      "Ġyellow": 3441,
      "Ġadding": 3442,
      "Ġfro": 3443,
      "Ġgraph": 3444,
      "bl": 3445,
      "Ġpattern": 3446,
      "met": 3447,
      "Ġtechnique": 3448,
      "mat": 3449,
      "inking": 3450,
      "ibly": 3451,
      "Ġapplied": 3452,
      "Ġreaction": 3453,
      "enn": 3454,
      "Ġaren": 3455,
      "Ġsalt": 3456,
      "Ġcommer": 3457,
      "Ġjoint": 3458,
      "iet": 3459,
      "Ġmoment": 3460,
      "inks": 3461,
      "Ġtrack": 3462,
      "Ġheavy": 3463,
      "acing": 3464,
      "Ġtransfer": 3465,
      "They": 3466,
      "Ġiron": 3467,
      "Ġbehavi": 3468,
      "Ġthird": 3469,
      "osystem": 3470,
      "Ġfa": 3471,
      "Ġfully": 3472,
      "Ġnutrition": 3473,
      "Ġled": 3474,
      "Ġep": 3475,
      "Ġsetting": 3476,
      "ĠGl": 3477,
      "pite": 3478,
      "hetic": 3479,
      "Ġsmooth": 3480,
      "On": 3481,
      "apter": 3482,
      "Ġcentury": 3483,
      "ĠTheir": 3484,
      "ister": 3485,
      "Ġpieces": 3486,
      "Ġinteresting": 3487,
      "cular": 3488,
      "arr": 3489,
      "ificial": 3490,
      "lands": 3491,
      "standing": 3492,
      "oun": 3493,
      "Ġprocessing": 3494,
      "Ġplaces": 3495,
      "Ġrapid": 3496,
      "Ġswitch": 3497,
      "Ġocean": 3498,
      "Ġfrequency": 3499,
      "Ġ|": 3500,
      "odes": 3501,
      "Ġowners": 3502,
      "Ġconvers": 3503,
      "Ġcurrently": 3504,
      "Ġbroad": 3505,
      "Ġapply": 3506,
      "ĠRem": 3507,
      "Ġpromot": 3508,
      "Ġwrong": 3509,
      "Ġcausing": 3510,
      "Ġsituation": 3511,
      "Ġsex": 3512,
      "Ġfunctions": 3513,
      "Ġcharge": 3514,
      "Ġestim": 3515,
      "Ġsecurity": 3516,
      "Ġimag": 3517,
      "Ġdiam": 3518,
      "Ġdepend": 3519,
      "Ġsuccessful": 3520,
      "Ġbud": 3521,
      "Ġvegetables": 3522,
      "rew": 3523,
      "Ġdead": 3524,
      "Ġinterf": 3525,
      "Ġtox": 3526,
      "Ġlat": 3527,
      "ĠAc": 3528,
      "Ġexperiment": 3529,
      "Ġlocated": 3530,
      "Ġfaster": 3531,
      "ĠOnce": 3532,
      "ok": 3533,
      "Ġgene": 3534,
      "Ġhorse": 3535,
      "Ġdocument": 3536,
      "arian": 3537,
      "pping": 3538,
      "imens": 3539,
      "Ġoccurs": 3540,
      "Ġagricult": 3541,
      "ashion": 3542,
      "Ġincorpor": 3543,
      "Ġconnected": 3544,
      "ĠAir": 3545,
      "ĠLear": 3546,
      "Ġstraight": 3547,
      "roll": 3548,
      "Ġwire": 3549,
      "ycl": 3550,
      "Ġvia": 3551,
      "Re": 3552,
      "Ġâ": 3553,
      "amed": 3554,
      "duc": 3555,
      "Ġanyone": 3556,
      "Ġinsp": 3557,
      "Ġexactly": 3558,
      "Ġdecision": 3559,
      "Ġvoltage": 3560,
      "200": 3561,
      "Ġculture": 3562,
      "iction": 3563,
      "ĠAg": 3564,
      "Ġdemand": 3565,
      "Ġmuscle": 3566,
      "ĠArt": 3567,
      "Ġreve": 3568,
      "Ġdescribed": 3569,
      "Ġbreed": 3570,
      "Ġwalk": 3571,
      "ĠWho": 3572,
      "Ġcoming": 3573,
      "ened": 3574,
      "Im": 3575,
      "Ġcapacity": 3576,
      "Ġsolid": 3577,
      "hether": 3578,
      "enge": 3579,
      "Ġnucle": 3580,
      "Ġopportunity": 3581,
      "Ġcommercial": 3582,
      "Ġexposure": 3583,
      "Ġfilm": 3584,
      "che": 3585,
      "Ġintellig": 3586,
      "Ġscale": 3587,
      "Ġexcellent": 3588,
      "Ġeffectively": 3589,
      "Ġliter": 3590,
      "Ġnews": 3591,
      "ancing": 3592,
      "ĠAdditionally": 3593,
      "ĠWater": 3594,
      "Ġexpert": 3595,
      "ester": 3596,
      "ĠTechn": 3597,
      "itis": 3598,
      "Ġcombination": 3599,
      "Ġsymbol": 3600,
      "Ġstrategies": 3601,
      "Ġtherefore": 3602,
      "Ġ60": 3603,
      "Ġcars": 3604,
      "estic": 3605,
      "22": 3606,
      "book": 3607,
      "OS": 3608,
      "Ġtaste": 3609,
      "Ġreceive": 3610,
      "Ġclin": 3611,
      "Ġreduced": 3612,
      "erson": 3613,
      "Do": 3614,
      "olar": 3615,
      "Ġtank": 3616,
      "Ġbirth": 3617,
      "ĠBecause": 3618,
      "Ġresid": 3619,
      "Ġmoisture": 3620,
      "Ġshar": 3621,
      "oration": 3622,
      "RE": 3623,
      "roduction": 3624,
      "Ġmouth": 3625,
      "Ġswim": 3626,
      "ĠOther": 3627,
      "Ġ#": 3628,
      "ĠOver": 3629,
      "Ġpump": 3630,
      "Ġincluded": 3631,
      "ender": 3632,
      "amb": 3633,
      "Ġlooks": 3634,
      "Ġtask": 3635,
      "Ġexamples": 3636,
      "Ġbutter": 3637,
      "ĠDis": 3638,
      "Ġroof": 3639,
      "ada": 3640,
      "Ġnote": 3641,
      "ĠWest": 3642,
      "Ġproperty": 3643,
      "Step": 3644,
      "Ġcamp": 3645,
      "Ġcontribute": 3646,
      "Ġtherapy": 3647,
      "Ġbecame": 3648,
      "ĠAct": 3649,
      "orith": 3650,
      "Ġcollabor": 3651,
      "Ġfertil": 3652,
      "ĠEm": 3653,
      "Ġund": 3654,
      "Ġcontext": 3655,
      "ĠSim": 3656,
      "right": 3657,
      "Ġdoctor": 3658,
      "Ġcloth": 3659,
      "Ġthus": 3660,
      "zy": 3661,
      "anging": 3662,
      "Ġwet": 3663,
      "Ġforward": 3664,
      "Ġchance": 3665,
      "Ġexperiences": 3666,
      "avig": 3667,
      "erences": 3668,
      "Ġtissue": 3669,
      "Ġinches": 3670,
      "ĠSw": 3671,
      "Ġjourney": 3672,
      "Ġadvanced": 3673,
      "can": 3674,
      "Ġpref": 3675,
      "Ġbrown": 3676,
      "Ġgenes": 3677,
      "Ġdetails": 3678,
      "Ġtherm": 3679,
      "cohol": 3680,
      "ĠEach": 3681,
      "Ġdrain": 3682,
      "Ġwat": 3683,
      "urt": 3684,
      "Ġflex": 3685,
      "omb": 3686,
      "Ġgradu": 3687,
      "ĠRed": 3688,
      "ĠTra": 3689,
      "off": 3690,
      "Ġstream": 3691,
      "ĠRec": 3692,
      "Ġbeyond": 3693,
      "ided": 3694,
      "Ġwrite": 3695,
      "Pl": 3696,
      "Now": 3697,
      "Ġpresence": 3698,
      "Ġpaint": 3699,
      "Ġelectricity": 3700,
      "ober": 3701,
      "iar": 3702,
      "ĠBrit": 3703,
      "Ġgiving": 3704,
      "Ġkeeping": 3705,
      "Ġschools": 3706,
      "fish": 3707,
      "ĠJust": 3708,
      "Ġwin": 3709,
      "ancial": 3710,
      "place": 3711,
      "Ġeffort": 3712,
      "Ġmob": 3713,
      "Ġpsych": 3714,
      "Ġbooks": 3715,
      "othes": 3716,
      "Ġupd": 3717,
      "ĠNOT": 3718,
      "Ġphotos": 3719,
      "Ġrecently": 3720,
      "my": 3721,
      "Ġalternative": 3722,
      "Ġextremely": 3723,
      "xi": 3724,
      "Ġmaximum": 3725,
      "ica": 3726,
      "Ġtouch": 3727,
      "uration": 3728,
      "Ġthous": 3729,
      "Ġexpensive": 3730,
      "Ġcoast": 3731,
      "lier": 3732,
      "Ġstructures": 3733,
      "dom": 3734,
      "Ġalthough": 3735,
      "Ġexpected": 3736,
      "ĠGerm": 3737,
      "zing": 3738,
      "iforn": 3739,
      "Ġmiddle": 3740,
      "Ġnative": 3741,
      "ĠChrist": 3742,
      "ĠFl": 3743,
      "izations": 3744,
      "Ġheight": 3745,
      "Ġparticles": 3746,
      "Ġmother": 3747,
      "iling": 3748,
      "Ġhandle": 3749,
      "ipl": 3750,
      "Ġsaw": 3751,
      "tes": 3752,
      "Ġagg": 3753,
      "Ġnotice": 3754,
      "Ġdegrees": 3755,
      "Ġaqu": 3756,
      "ĠEnglish": 3757,
      "ails": 3758,
      "Ġpregn": 3759,
      "Ġconsumption": 3760,
      "Ġecosystem": 3761,
      "Ġhuge": 3762,
      "Ġfigure": 3763,
      "Ġsites": 3764,
      "ĠState": 3765,
      "Ġolder": 3766,
      "abilities": 3767,
      "apan": 3768,
      "Ġtri": 3769,
      "haps": 3770,
      "oman": 3771,
      "Ġlost": 3772,
      "Some": 3773,
      "Ġtests": 3774,
      "Ġtasks": 3775,
      "Ġincreases": 3776,
      "ĠMin": 3777,
      "Ġaffected": 3778,
      "Ġnoise": 3779,
      "Ġonto": 3780,
      "pre": 3781,
      "Ġeth": 3782,
      "ipes": 3783,
      "Ġproteins": 3784,
      "Ġmis": 3785,
      "alt": 3786,
      "Ġsynt": 3787,
      "Ġrelease": 3788,
      "bits": 3789,
      "Ġslightly": 3790,
      "Ġmut": 3791,
      "Ġdifferences": 3792,
      "rench": 3793,
      "ĠCenter": 3794,
      "rick": 3795,
      "house": 3796,
      "70": 3797,
      "Ġsteel": 3798,
      "ĠMake": 3799,
      "Ġstim": 3800,
      "Ġconservation": 3801,
      "Ġfemale": 3802,
      "Ġbran": 3803,
      "inding": 3804,
      "Ġmedium": 3805,
      "Ġcommunities": 3806,
      "pped": 3807,
      "Ġmotion": 3808,
      "Ġfair": 3809,
      "cules": 3810,
      "ĠSystem": 3811,
      "Ġrelatively": 3812,
      "Ġreported": 3813,
      "Ġchanging": 3814,
      "ĠJoh": 3815,
      "Ġcharacteristics": 3816,
      "Ġlargest": 3817,
      "Ġtrend": 3818,
      "Un": 3819,
      "Ġremains": 3820,
      "Ġmonit": 3821,
      "Ġplaced": 3822,
      "Ġsmart": 3823,
      "omy": 3824,
      "Ġattempt": 3825,
      "uries": 3826,
      "hyd": 3827,
      "Ġvolume": 3828,
      "ifornia": 3829,
      "omic": 3830,
      "Ġflavor": 3831,
      "ĠEven": 3832,
      "Ġplanet": 3833,
      "Ġgoals": 3834,
      "ĠIts": 3835,
      "Ġversion": 3836,
      "cast": 3837,
      "Ġpicture": 3838,
      "gram": 3839,
      "Ġspect": 3840,
      "rates": 3841,
      "enty": 3842,
      "Ġdiscovered": 3843,
      "24": 3844,
      "ban": 3845,
      "Ġcutting": 3846,
      "</": 3847,
      "Ġhit": 3848,
      "Ġexpand": 3849,
      "ĠÂ": 3850,
      "Ġemissions": 3851,
      "gery": 3852,
      "Ġdepends": 3853,
      "Ġmid": 3854,
      "Ġstri": 3855,
      "ams": 3856,
      "Ġcateg": 3857,
      "Ġapprox": 3858,
      "rier": 3859,
      "Ġdepth": 3860,
      "flow": 3861,
      "riend": 3862,
      "Ġteachers": 3863,
      "Ġvaluable": 3864,
      "Ġdiv": 3865,
      "ĠGra": 3866,
      "Ġhyp": 3867,
      "Ġcred": 3868,
      "Ġopportunities": 3869,
      "Ġinstance": 3870,
      "Ġmeasures": 3871,
      "Ġdriving": 3872,
      "Ġadults": 3873,
      "crete": 3874,
      "Ġsess": 3875,
      "Ġbone": 3876,
      "Ġcomfortable": 3877,
      "Ġphone": 3878,
      "Ġalgorith": 3879,
      "Ġclim": 3880,
      "ĠAccording": 3881,
      "Ġadvantage": 3882,
      "Ġteaching": 3883,
      "AM": 3884,
      "Ġphase": 3885,
      "Ġadop": 3886,
      "Ġtit": 3887,
      "Ġcomprehens": 3888,
      "Ġtechnologies": 3889,
      "Ġindepend": 3890,
      "].": 3891,
      "Ġfluid": 3892,
      "rim": 3893,
      "being": 3894,
      "Ġflat": 3895,
      "ĠTw": 3896,
      "Ġvirt": 3897,
      "Ġsnow": 3898,
      "Ġfilter": 3899,
      "Ġconnection": 3900,
      "Ġbow": 3901,
      "Ġsounds": 3902,
      "Ġresulting": 3903,
      "Ġround": 3904,
      "Ġdat": 3905,
      "aught": 3906,
      "ĠQ": 3907,
      "ĠHigh": 3908,
      "celer": 3909,
      "ĠFirst": 3910,
      "lebr": 3911,
      "hest": 3912,
      "ĠGod": 3913,
      "Ġbackground": 3914,
      "Ġstuff": 3915,
      "Ġast": 3916,
      "Res": 3917,
      "Ġalone": 3918,
      "oors": 3919,
      "Ġmag": 3920,
      "Ã©": 3921,
      "urally": 3922,
      "Ġtrig": 3923,
      "Ġdistinct": 3924,
      "ĠBi": 3925,
      "Ġrecycl": 3926,
      "ĠAlthough": 3927,
      "Ġmanage": 3928,
      "Ġder": 3929,
      "Ġrules": 3930,
      "ĠIndia": 3931,
      "Ġprofession": 3932,
      "know": 3933,
      "ĠAut": 3934,
      "pan": 3935,
      "vity": 3936,
      "Ġflight": 3937,
      "Ġnit": 3938,
      "unction": 3939,
      "IG": 3940,
      "eed": 3941,
      "uild": 3942,
      "Ġcomponent": 3943,
      "23": 3944,
      "onic": 3945,
      "Ġtrou": 3946,
      "Ġstar": 3947,
      "EM": 3948,
      "Ġdiabetes": 3949,
      "free": 3950,
      "Ġbright": 3951,
      "ĠMod": 3952,
      "Ġaspects": 3953,
      "ĠRep": 3954,
      "raction": 3955,
      "Ġefforts": 3956,
      "Ġachie": 3957,
      "Ġinsects": 3958,
      "ogs": 3959,
      "Ġlabor": 3960,
      "Ġwent": 3961,
      "Ġrates": 3962,
      "Ġsold": 3963,
      "):": 3964,
      "Ġdeb": 3965,
      "Ġroots": 3966,
      "ses": 3967,
      "wers": 3968,
      "Ġinfluence": 3969,
      "Ġpopulations": 3970,
      "resp": 3971,
      "ĠDon": 3972,
      "Ġsweet": 3973,
      "ĠPart": 3974,
      "Ġhistor": 3975,
      "Ġevol": 3976,
      "ET": 3977,
      "Ġkill": 3978,
      "ternal": 3979,
      "ĠCalifornia": 3980,
      "Ġbegan": 3981,
      "equ": 3982,
      "Ġexisting": 3983,
      "ogle": 3984,
      "Ġfeeling": 3985,
      "ĠTH": 3986,
      "Ġmale": 3987,
      "Ġactual": 3988,
      "wide": 3989,
      "med": 3990,
      "Ġdoor": 3991,
      "Ġsample": 3992,
      "Ġdate": 3993,
      "ĠInstitute": 3994,
      "Ġrespond": 3995,
      "ĠPhot": 3996,
      "ST": 3997,
      "Ġdynam": 3998,
      "bing": 3999,
      "Ġfinancial": 4000,
      "Ġequal": 4001,
      "Ġwritten": 4002,
      "ĠPar": 4003,
      "Ġspir": 4004,
      "Ġplanning": 4005,
      "ype": 4006,
      "semb": 4007,
      "alle": 4008,
      "Ġclos": 4009,
      "undred": 4010,
      "Ġmaintaining": 4011,
      "Ġsurpr": 4012,
      "Here": 4013,
      "ken": 4014,
      "year": 4015,
      "Ġrise": 4016,
      "ressive": 4017,
      "Ġattack": 4018,
      "Ġfight": 4019,
      "urance": 4020,
      "Ġcollection": 4021,
      "ĠJapan": 4022,
      "que": 4023,
      "encies": 4024,
      "Ġfinding": 4025,
      "Ġchallenge": 4026,
      "ĠServ": 4027,
      "Ġserve": 4028,
      "Ġbeginning": 4029,
      "Ġtooth": 4030,
      "hop": 4031,
      "ille": 4032,
      "xiety": 4033,
      "ups": 4034,
      "Ġappearance": 4035,
      "Ġillust": 4036,
      "ocal": 4037,
      "PS": 4038,
      "Ġdegree": 4039,
      "izer": 4040,
      "Ġpush": 4041,
      "AD": 4042,
      "Ġimmediately": 4043,
      "Ġded": 4044,
      "mar": 4045,
      "iments": 4046,
      "Ġwonder": 4047,
      "ĠSince": 4048,
      "Ġformed": 4049,
      "Ġmatch": 4050,
      "Ġregions": 4051,
      "Ġelectron": 4052,
      "bre": 4053,
      "Ġinstructions": 4054,
      "ying": 4055,
      "rows": 4056,
      "spe": 4057,
      "Ġcentral": 4058,
      "oice": 4059,
      "Ġhear": 4060,
      "Ġseparate": 4061,
      "Ġtrust": 4062,
      "Ġhighlight": 4063,
      "Ġpool": 4064,
      "Ġsort": 4065,
      "ĠSpe": 4066,
      "Ġpric": 4067,
      "Ġrub": 4068,
      "Ġallowed": 4069,
      "key": 4070,
      "Ġparam": 4071,
      "Ġcore": 4072,
      "Ġfashion": 4073,
      "Ġspecifically": 4074,
      "Ġcovered": 4075,
      "Ġfoss": 4076,
      "Ġfurn": 4077,
      "ĠRead": 4078,
      "Ġchann": 4079,
      "oly": 4080,
      "Ġhabitat": 4081,
      "Ġdish": 4082,
      "Ġconsult": 4083,
      "Ġdiscover": 4084,
      "Ġlights": 4085,
      "Ġfly": 4086,
      "oom": 4087,
      "Ġoperation": 4088,
      "Ġtax": 4089,
      "Ġmolecules": 4090,
      "Ġcustomers": 4091,
      "However": 4092,
      "uce": 4093,
      "ollow": 4094,
      "Ġcalc": 4095,
      "chen": 4096,
      "Ġregularly": 4097,
      "Ġrepe": 4098,
      "ads": 4099,
      "iant": 4100,
      "Ġnational": 4101,
      "fess": 4102,
      "agram": 4103,
      "Ġbound": 4104,
      "cription": 4105,
      "Ġcompar": 4106,
      "Ġplease": 4107,
      "Ġpig": 4108,
      "Ġpets": 4109,
      "Ġselection": 4110,
      "Ġqual": 4111,
      "ibrary": 4112,
      "Ġestablish": 4113,
      "uary": 4114,
      "Ġalcohol": 4115,
      "aled": 4116,
      "abol": 4117,
      "Ġconver": 4118,
      "inally": 4119,
      "Ġcomplic": 4120,
      "Ġpromote": 4121,
      "eters": 4122,
      "Ġwave": 4123,
      "Ġaccurate": 4124,
      "Ġasked": 4125,
      "Ġrisks": 4126,
      "Ġdistribution": 4127,
      "pen": 4128,
      "ications": 4129,
      "Ġvital": 4130,
      "used": 4131,
      "ĠTherefore": 4132,
      "Ġfamilies": 4133,
      "inger": 4134,
      "Ġfloor": 4135,
      "inder": 4136,
      "Ġwel": 4137,
      "Ġnearly": 4138,
      "Ġinternal": 4139,
      "ĠSec": 4140,
      "gs": 4141,
      "Ġ*": 4142,
      "Ġscen": 4143,
      "rupt": 4144,
      "Ġnavig": 4145,
      "ashing": 4146,
      "icks": 4147,
      "Ġspend": 4148,
      "part": 4149,
      "Ġhelping": 4150,
      "Ġcouple": 4151,
      "Ġpal": 4152,
      "Ġchicken": 4153,
      "Ġcounter": 4154,
      "Ph": 4155,
      "________": 4156,
      "ĠMon": 4157,
      "Ġphen": 4158,
      "EC": 4159,
      "azing": 4160,
      "orial": 4161,
      "bed": 4162,
      "Ġhour": 4163,
      "ief": 4164,
      "iverse": 4165,
      "ĠTrans": 4166,
      "ilit": 4167,
      "Ġelimin": 4168,
      "Ġframe": 4169,
      "related": 4170,
      "Ġmiles": 4171,
      "minist": 4172,
      "Ġstaff": 4173,
      "ĠUsing": 4174,
      "Ġsuggests": 4175,
      "Ġstem": 4176,
      "Ġbasis": 4177,
      "Ġfeeding": 4178,
      "Ġdie": 4179,
      "Ġweak": 4180,
      "Ġstandards": 4181,
      "Ġgeneration": 4182,
      "Ġfrequently": 4183,
      "ĠUK": 4184,
      "aser": 4185,
      "ĠAnt": 4186,
      "Ġenter": 4187,
      "Ġtopic": 4188,
      "itect": 4189,
      "Ġapprec": 4190,
      "vention": 4191,
      "Ġstick": 4192,
      "Ġpractical": 4193,
      "ĠFood": 4194,
      "Ġmarine": 4195,
      "ux": 4196,
      "iol": 4197,
      "Ġju": 4198,
      "Ġcontract": 4199,
      "Ġtiny": 4200,
      "Ġign": 4201,
      "oma": 4202,
      "Ġstru": 4203,
      "Ġbecoming": 4204,
      "Ġcustomer": 4205,
      "Ġshel": 4206,
      "ĠAfrica": 4207,
      "uth": 4208,
      "Ġbodies": 4209,
      "ares": 4210,
      "Ġobserved": 4211,
      "Ġatmosphere": 4212,
      "icated": 4213,
      "Ġmel": 4214,
      "ios": 4215,
      "Ġvent": 4216,
      "Ġlighting": 4217,
      "Ġchemicals": 4218,
      "Ġeconomic": 4219,
      "Ġrobot": 4220,
      "gra": 4221,
      "Ġdivers": 4222,
      "ament": 4223,
      "Ġlearned": 4224,
      "ipped": 4225,
      "ixture": 4226,
      "Ġhundred": 4227,
      "Ġelectro": 4228,
      "Ġgear": 4229,
      "Ġexhib": 4230,
      "ĠUnder": 4231,
      "Ġhomes": 4232,
      "ira": 4233,
      "Ġhappy": 4234,
      "Ġspl": 4235,
      "Ġplayers": 4236,
      "Ġadvice": 4237,
      "Ġveter": 4238,
      "Ġlov": 4239,
      "Ġdrawing": 4240,
      "atural": 4241,
      "ulating": 4242,
      "Ġwanted": 4243,
      "wood": 4244,
      "Ġidentified": 4245,
      "Ġregarding": 4246,
      "elines": 4247,
      "Ġcelebr": 4248,
      "Ġgenerate": 4249,
      "All": 4250,
      "Ġfill": 4251,
      "Ġrepair": 4252,
      "ishing": 4253,
      "Ġbond": 4254,
      "!!": 4255,
      "ĠWar": 4256,
      "II": 4257,
      "21": 4258,
      "Ġinfections": 4259,
      "Ġdin": 4260,
      "Ġplaying": 4261,
      "ĠDepartment": 4262,
      "friend": 4263,
      "Ġ21": 4264,
      "Ġfields": 4265,
      "Ġimproved": 4266,
      "eties": 4267,
      "Ġsociety": 4268,
      "ĠYork": 4269,
      "Ġinterested": 4270,
      "Ġinflamm": 4271,
      "vironments": 4272,
      "ING": 4273,
      "ĠSu": 4274,
      "Ġrid": 4275,
      "ped": 4276,
      "ĠEduc": 4277,
      "ums": 4278,
      "Ġexperienced": 4279,
      "Ġpredict": 4280,
      "Ġneut": 4281,
      "Ġleaf": 4282,
      "Ġmember": 4283,
      "Ġinternational": 4284,
      "ION": 4285,
      "Ġcand": 4286,
      "Ġleaders": 4287,
      "Ġanti": 4288,
      "atically": 4289,
      "Ġsche": 4290,
      "Ġdura": 4291,
      "Ġfruits": 4292,
      "oxide": 4293,
      "Ġedge": 4294,
      "ĠCount": 4295,
      "Ġfavorite": 4296,
      "Ġpotentially": 4297,
      "Ġdangerous": 4298,
      "Ġnan": 4299,
      "Des": 4300,
      "Ġdiverse": 4301,
      "Ġfed": 4302,
      "Ġmig": 4303,
      "ĠÎ": 4304,
      "That": 4305,
      "Ġwindow": 4306,
      "umn": 4307,
      "Ġadvance": 4308,
      "Ġod": 4309,
      "Ab": 4310,
      "ius": 4311,
      "alse": 4312,
      "Us": 4313,
      "unk": 4314,
      "Ġkid": 4315,
      "Ġlose": 4316,
      "Ġwildlife": 4317,
      "ublic": 4318,
      "ource": 4319,
      "Ġdouble": 4320,
      "oday": 4321,
      "Ġfear": 4322,
      "Ġvehicles": 4323,
      "Ġchain": 4324,
      "Ġchanged": 4325,
      "Ġlayers": 4326,
      "Ġsecure": 4327,
      "Ġnumerous": 4328,
      "Ġmist": 4329,
      "Ġsav": 4330,
      "org": 4331,
      "eline": 4332,
      "body": 4333,
      "Ġremoved": 4334,
      "Ġamounts": 4335,
      "Ġaudio": 4336,
      "Ġmuscles": 4337,
      "Ġ80": 4338,
      "Ġconsequ": 4339,
      "My": 4340,
      "ĠDay": 4341,
      "Ġsatis": 4342,
      "ifying": 4343,
      "Ġsignals": 4344,
      "formation": 4345,
      "cil": 4346,
      "ees": 4347,
      "Ġexec": 4348,
      "Ġartificial": 4349,
      "Ġhelpful": 4350,
      "Ġdrop": 4351,
      "Ġteach": 4352,
      "erate": 4353,
      "Ġacceler": 4354,
      "Ġpair": 4355,
      "Ġworked": 4356,
      "ded": 4357,
      "ĠDi": 4358,
      "ager": 4359,
      "force": 4360,
      "ĠEd": 4361,
      "Ġcreative": 4362,
      "mm": 4363,
      "Our": 4364,
      "pril": 4365,
      "Ġallerg": 4366,
      "Ġtrain": 4367,
      "After": 4368,
      "icking": 4369,
      "rome": 4370,
      "ĠAustralia": 4371,
      "Ġpupp": 4372,
      "Ġorganization": 4373,
      "No": 4374,
      "icious": 4375,
      "ĠEvery": 4376,
      "Ġenvironments": 4377,
      "known": 4378,
      "Ġcryst": 4379,
      "Ġmaybe": 4380,
      "ãģ": 4381,
      "Ġboost": 4382,
      "ĠSte": 4383,
      "ste": 4384,
      "ulf": 4385,
      "Ġconcerns": 4386,
      "Ġhosp": 4387,
      "Ġapproximately": 4388,
      "Ġsell": 4389,
      "osite": 4390,
      "Ġsurgery": 4391,
      "ceed": 4392,
      "Ġradio": 4393,
      "olute": 4394,
      "Ġharvest": 4395,
      "Ġthor": 4396,
      "Ġreference": 4397,
      "ny": 4398,
      "Ġmold": 4399,
      "Ġencourage": 4400,
      "ech": 4401,
      "ĠJan": 4402,
      "outhern": 4403,
      "Ġanxiety": 4404,
      "Ġrelax": 4405,
      "Ġemp": 4406,
      "Ġdesired": 4407,
      "Ġ)": 4408,
      "Ġestablished": 4409,
      "Ġreality": 4410,
      "ĠJu": 4411,
      "Ġdefined": 4412,
      "Ġpul": 4413,
      "Ġhealthcare": 4414,
      "Ġmostly": 4415,
      "Ġresource": 4416,
      "Ġcomprehensive": 4417,
      "wing": 4418,
      "iers": 4419,
      "Ġteacher": 4420,
      "col": 4421,
      "Ġlandscape": 4422,
      "Ġheld": 4423,
      "Ġpollution": 4424,
      "Ġsimpl": 4425,
      "Ġflav": 4426,
      "imal": 4427,
      "Ġoperations": 4428,
      "AP": 4429,
      "ought": 4430,
      "Ġblog": 4431,
      "iveness": 4432,
      "Ġmit": 4433,
      "asts": 4434,
      "orthern": 4435,
      "idity": 4436,
      "uting": 4437,
      "ĠWhether": 4438,
      "Ġpolit": 4439,
      "Ġshowed": 4440,
      "Ġreceived": 4441,
      "Ġroutine": 4442,
      "erals": 4443,
      "Ġdecisions": 4444,
      "isp": 4445,
      "Ġgrown": 4446,
      "ĠDuring": 4447,
      "Ġtold": 4448,
      "Ġconcrete": 4449,
      "Ġ2020": 4450,
      "Ar": 4451,
      "rans": 4452,
      "ĠCle": 4453,
      "Ġbusinesses": 4454,
      "phas": 4455,
      "\":": 4456,
      "ĠWell": 4457,
      "ida": 4458,
      "Ġbath": 4459,
      "word": 4460,
      "ĠGreen": 4461,
      "Ġaircraft": 4462,
      "Ġconstruct": 4463,
      "Ġhighest": 4464,
      "Ġheating": 4465,
      "Ġphoto": 4466,
      "ĠPC": 4467,
      "Ġsports": 4468,
      "Ġplate": 4469,
      "Ġple": 4470,
      "pective": 4471,
      "Ġbeneficial": 4472,
      "ĠChina": 4473,
      "atever": 4474,
      "Ġburn": 4475,
      "Ġlots": 4476,
      "Ġtypical": 4477,
      "ĠBar": 4478,
      "cont": 4479,
      "Ġsettings": 4480,
      "Ġsurfaces": 4481,
      "Ġencourag": 4482,
      "Ġwidely": 4483,
      "des": 4484,
      "ffee": 4485,
      "Another": 4486,
      "iples": 4487,
      "Ġmeal": 4488,
      "Ġunits": 4489,
      "oughly": 4490,
      "bal": 4491,
      "Ġengineering": 4492,
      "Ġ90": 4493,
      "ĠPark": 4494,
      "ĠAv": 4495,
      "Ġshop": 4496,
      "Ġsod": 4497,
      "Ġplans": 4498,
      "Ġsquare": 4499,
      "ĠChar": 4500,
      "cap": 4501,
      "Ġraw": 4502,
      "Int": 4503,
      "Ġoccas": 4504,
      "ipping": 4505,
      "roup": 4506,
      "Ġhorm": 4507,
      "Ġillness": 4508,
      "Ġarm": 4509,
      "Ġclasses": 4510,
      "Ġlegal": 4511,
      "Ġmachines": 4512,
      "quality": 4513,
      "iced": 4514,
      "ĠSk": 4515,
      "ĠCom": 4516,
      "Ġexperts": 4517,
      "rating": 4518,
      "Ġangle": 4519,
      "Ġinjury": 4520,
      "ndom": 4521,
      "iences": 4522,
      "Ġtexture": 4523,
      "Ġreleased": 4524,
      "?\"": 4525,
      "Ġtalking": 4526,
      "Ke": 4527,
      "Ġindustrial": 4528,
      "Ġten": 4529,
      "uman": 4530,
      "Se": 4531,
      "Ġsensor": 4532,
      "Ġearlier": 4533,
      "Ġcontrast": 4534,
      "Ġancient": 4535,
      "Ġheard": 4536,
      "Ġ<": 4537,
      "Ġhydro": 4538,
      "Ġsaying": 4539,
      "ĠWill": 4540,
      "Ġdesigns": 4541,
      "nes": 4542,
      "Ġdro": 4543,
      "Ġprimarily": 4544,
      "ĠDoes": 4545,
      "irect": 4546,
      "orses": 4547,
      "Ġharmful": 4548,
      "Ġvess": 4549,
      "Ġstarts": 4550,
      "asting": 4551,
      "Ġtoxic": 4552,
      "Ġexposed": 4553,
      "Sc": 4554,
      "Ġdental": 4555,
      "cious": 4556,
      "Ġtransl": 4557,
      "za": 4558,
      "OU": 4559,
      "Ġdrugs": 4560,
      "ĠSur": 4561,
      "ĠElect": 4562,
      "Ġsem": 4563,
      "Ġtour": 4564,
      "cers": 4565,
      "Ġdiss": 4566,
      "Ġupper": 4567,
      "ĠAug": 4568,
      "ĠAC": 4569,
      "Ġassign": 4570,
      "Ġnamed": 4571,
      "ĠOct": 4572,
      "estyle": 4573,
      "ĠBra": 4574,
      "Ġwalls": 4575,
      "Ġemotional": 4576,
      "Ġclick": 4577,
      "ĠâĢ¢": 4578,
      "Ġeventually": 4579,
      "iter": 4580,
      "Ġprepared": 4581,
      "ta": 4582,
      "Ġcultural": 4583,
      "ĠEl": 4584,
      "Ġrice": 4585,
      "brid": 4586,
      "ĠKeep": 4587,
      "Ġorganisms": 4588,
      "ĠEnvironment": 4589,
      "Ġrule": 4590,
      "27": 4591,
      "works": 4592,
      "ĠFr": 4593,
      "Ġflower": 4594,
      "Ġwaves": 4595,
      "Ġobvious": 4596,
      "||": 4597,
      "Ġ198": 4598,
      "Ġsamples": 4599,
      "Ġrelationships": 4600,
      "Ġnest": 4601,
      "yd": 4602,
      "Ġstre": 4603,
      "Ġplays": 4604,
      "Ġdra": 4605,
      "allow": 4606,
      "Ġfung": 4607,
      "ek": 4608,
      "Ġneigh": 4609,
      "umber": 4610,
      "Ġrelevant": 4611,
      "Ġmaster": 4612,
      "Ġleads": 4613,
      "Ġnaturally": 4614,
      "Ġwheel": 4615,
      "Ġstrategy": 4616,
      "Ġmorning": 4617,
      "ordin": 4618,
      "Ġfindings": 4619,
      "Ġthread": 4620,
      "rant": 4621,
      "Ġassum": 4622,
      "35": 4623,
      "Ġcolour": 4624,
      "Ġlatest": 4625,
      "Ġdetailed": 4626,
      "lev": 4627,
      "Ġconven": 4628,
      "Ġconc": 4629,
      "uk": 4630,
      "ĠEuropean": 4631,
      "ocolate": 4632,
      "Ġtreated": 4633,
      "Ġsets": 4634,
      "Ġpolicy": 4635,
      "Ġshell": 4636,
      "itely": 4637,
      "Ġisol": 4638,
      "Ġpurchase": 4639,
      "Ġadvantages": 4640,
      "Ġhom": 4641,
      "Ġtransmission": 4642,
      "och": 4643,
      "Ġmamm": 4644,
      "hemat": 4645,
      "Ġfollowed": 4646,
      "Ġquantum": 4647,
      "Ġsty": 4648,
      "aid": 4649,
      "lt": 4650,
      "Ġchrom": 4651,
      "Ġtoward": 4652,
      "Ġmedicine": 4653,
      "==": 4654,
      "roduct": 4655,
      "Ġcert": 4656,
      "Ġsituations": 4657,
      "which": 4658,
      "Ġmagnetic": 4659,
      "urrent": 4660,
      "Ġhous": 4661,
      "Ġprofessionals": 4662,
      "Ġoffice": 4663,
      "Ġax": 4664,
      "Ġcarefully": 4665,
      "ologist": 4666,
      "Ġratio": 4667,
      "clus": 4668,
      "Ġofficial": 4669,
      "Ġtreatments": 4670,
      "itary": 4671,
      "Ġthousands": 4672,
      "Ġnice": 4673,
      "olid": 4674,
      "Ġstored": 4675,
      "Ġreliable": 4676,
      "Ġbatteries": 4677,
      "Ġmixture": 4678,
      "Ġextract": 4679,
      "Ġoperating": 4680,
      "Bl": 4681,
      "Ġmanufacturing": 4682,
      "osa": 4683,
      "Ġintroduced": 4684,
      "Ġactions": 4685,
      "Ġdream": 4686,
      "Ġexpression": 4687,
      "Ġapart": 4688,
      "ĠProgram": 4689,
      "Ġhon": 4690,
      "Ġexternal": 4691,
      "26": 4692,
      "hyl": 4693,
      "Ġbike": 4694,
      "Ġalign": 4695,
      "ptember": 4696,
      "Ġbrush": 4697,
      "ĠBo": 4698,
      "Ġband": 4699,
      "Are": 4700,
      "lines": 4701,
      "Ġindicate": 4702,
      "Ġfishing": 4703,
      "Ġcup": 4704,
      "Ġbeauty": 4705,
      "Ġstrugg": 4706,
      "Ġafford": 4707,
      "45": 4708,
      "ued": 4709,
      "ĠCanada": 4710,
      "Ġappears": 4711,
      "Ġcraft": 4712,
      "Ġacqu": 4713,
      "Answer": 4714,
      "Ġconsistent": 4715,
      "isher": 4716,
      "ĠFrench": 4717,
      "Ġrandom": 4718,
      "Ġbot": 4719,
      "Ġmac": 4720,
      "ĠPres": 4721,
      "Ġlegs": 4722,
      "Ġdetermined": 4723,
      "Ġkitchen": 4724,
      "Ġoptimal": 4725,
      "Ġcorresp": 4726,
      "Ġdigest": 4727,
      "change": 4728,
      "Ġincred": 4729,
      "Ġ2017": 4730,
      "Ġuns": 4731,
      "Ġ2014": 4732,
      "ĠST": 4733,
      "friendly": 4734,
      "ĠCor": 4735,
      "ĠChild": 4736,
      "Ġelev": 4737,
      "Ġstories": 4738,
      "Ġhydrogen": 4739,
      "Ġcream": 4740,
      "Ġcheese": 4741,
      "Ġchoosing": 4742,
      "Ġorganizations": 4743,
      "Ġcoat": 4744,
      "Ġsunlight": 4745,
      "Ġvibr": 4746,
      "add": 4747,
      "Ġintelligence": 4748,
      "ico": 4749,
      "acking": 4750,
      "ĠGet": 4751,
      "Ġdescribe": 4752,
      "Ġvert": 4753,
      "icip": 4754,
      "Ġoutdoor": 4755,
      "hab": 4756,
      "Ġbrought": 4757,
      "Ġarchitect": 4758,
      "ĠClass": 4759,
      "100": 4760,
      "Ġfarmers": 4761,
      "ructure": 4762,
      "ĠGoogle": 4763,
      "Ġperformed": 4764,
      "Ġhaz": 4765,
      "29": 4766,
      "Ġbat": 4767,
      "Ġemail": 4768,
      "Ġiniti": 4769,
      "Ġbreeding": 4770,
      "Ġchoices": 4771,
      "Ġelectronic": 4772,
      "Ġmode": 4773,
      "ĠOut": 4774,
      "Ġformation": 4775,
      "Ġbillion": 4776,
      "ĠIndian": 4777,
      "Ġfiber": 4778,
      "ĠAN": 4779,
      "Ġmembr": 4780,
      "see": 4781,
      "with": 4782,
      "Ġflo": 4783,
      "Ġreduction": 4784,
      "Ġstone": 4785,
      "ĠHer": 4786,
      "Ġkept": 4787,
      "Ġcombined": 4788,
      "eper": 4789,
      "Ġmonitoring": 4790,
      "Your": 4791,
      "Most": 4792,
      "ĠVal": 4793,
      "Ġprecise": 4794,
      "Ġprivate": 4795,
      "Ġdrink": 4796,
      "ighter": 4797,
      "Ġstret": 4798,
      "Ġprepare": 4799,
      "Ġplanting": 4800,
      "Ġdensity": 4801,
      "Ġ2015": 4802,
      "Ġbiological": 4803,
      "ĠBlack": 4804,
      "uments": 4805,
      "ĠHar": 4806,
      "Ġcrops": 4807,
      "Ġmainly": 4808,
      "ishes": 4809,
      "bi": 4810,
      "unity": 4811,
      "Ġshoot": 4812,
      "Ġensures": 4813,
      "Ġvs": 4814,
      "Ġmetabol": 4815,
      "ĠJune": 4816,
      "Ġstatus": 4817,
      "Ġvitamin": 4818,
      "ometimes": 4819,
      "iture": 4820,
      "Ġemphas": 4821,
      "Ġtall": 4822,
      "ris": 4823,
      "Ġoffering": 4824,
      "Ġimpacts": 4825,
      "ĠBritish": 4826,
      "Ġlabel": 4827,
      "Ġbreast": 4828,
      "ĠRiver": 4829,
      "Ġdeliver": 4830,
      "Ġsyn": 4831,
      "Ġmessage": 4832,
      "ĠIns": 4833,
      "ĠMarch": 4834,
      "Ġturned": 4835,
      "zen": 4836,
      "Ġconcentration": 4837,
      "osph": 4838,
      "Ġminimum": 4839,
      "Ġprocedure": 4840,
      "hesis": 4841,
      "Ġ70": 4842,
      "EL": 4843,
      "Ġ2012": 4844,
      "Ġamazing": 4845,
      "Ġbutton": 4846,
      "Ġhole": 4847,
      "Ġlaws": 4848,
      "Ġforces": 4849,
      "28": 4850,
      "Ġ2013": 4851,
      "ĠApril": 4852,
      "ĠJohn": 4853,
      "Ġcreates": 4854,
      "erent": 4855,
      "Ġ2018": 4856,
      "Ġsect": 4857,
      "Ġpotat": 4858,
      "Ġsizes": 4859,
      "Ġcit": 4860,
      "ctors": 4861,
      "Ġlic": 4862,
      "ropical": 4863,
      "Ġpartners": 4864,
      "Ġmeasured": 4865,
      "Ġdu": 4866,
      "rich": 4867,
      "ĠAssoci": 4868,
      "point": 4869,
      "ologists": 4870,
      "Ġinvolve": 4871,
      "Ġshared": 4872,
      "ĠAny": 4873,
      "mitted": 4874,
      "ĠDevelop": 4875,
      "Ġgrade": 4876,
      "RO": 4877,
      "Yes": 4878,
      "Ġshapes": 4879,
      "print": 4880,
      "SA": 4881,
      "Ġeducational": 4882,
      "Ġantibiot": 4883,
      "Ġshowing": 4884,
      "Ġ\\": 4885,
      "Ġ2016": 4886,
      "Ġdust": 4887,
      "Ġchallenging": 4888,
      "antic": 4889,
      "mary": 4890,
      "orms": 4891,
      "anges": 4892,
      "ressed": 4893,
      "Ġpictures": 4894,
      "Ġwait": 4895,
      "top": 4896,
      "aming": 4897,
      "yn": 4898,
      "Ġawareness": 4899,
      "requ": 4900,
      "ception": 4901,
      "Ġ23": 4902,
      "Ġwest": 4903,
      "Ġfasc": 4904,
      "Ġerror": 4905,
      "Ġimproving": 4906,
      "Ġcontainer": 4907,
      "Ġopin": 4908,
      "Ġcoffee": 4909,
      "Ġconclusion": 4910,
      "Ġkinds": 4911,
      "Ġzero": 4912,
      "ĠPeople": 4913,
      "inating": 4914,
      "Ġmic": 4915,
      "VID": 4916,
      "chers": 4917,
      "ĠHist": 4918,
      "Ġmonitor": 4919,
      "Ġstock": 4920,
      "gl": 4921,
      "porary": 4922,
      "crib": 4923,
      "Ġprinting": 4924,
      "Ġfold": 4925,
      "Ġsmell": 4926,
      "Ġacad": 4927,
      "Ġrenew": 4928,
      "ĠLED": 4929,
      "Ġspin": 4930,
      "lets": 4931,
      "iration": 4932,
      "car": 4933,
      "Ġworry": 4934,
      "ĠHis": 4935,
      "Ġfocused": 4936,
      "Ġsurrounding": 4937,
      "rest": 4938,
      "Ġcapable": 4939,
      "Ġ2019": 4940,
      "ĠInternational": 4941,
      "Ġtransition": 4942,
      "Ġwhose": 4943,
      "Once": 4944,
      "Ġphotograph": 4945,
      "rations": 4946,
      "Ġtruly": 4947,
      "weight": 4948,
      "Ġsensitive": 4949,
      "Ġeight": 4950,
      "Ġpil": 4951,
      "CO": 4952,
      "Ġperhaps": 4953,
      "idth": 4954,
      "En": 4955,
      "Ġfle": 4956,
      "opy": 4957,
      "hus": 4958,
      "tered": 4959,
      "Ġble": 4960,
      "Ġplenty": 4961,
      "ĠInter": 4962,
      "Ġgir": 4963,
      "Ġsuppl": 4964,
      "ivil": 4965,
      "ials": 4966,
      "Ġnerv": 4967,
      "DA": 4968,
      "Ġjournal": 4969,
      "Ġtun": 4970,
      "Ġmajority": 4971,
      "Ġcontinues": 4972,
      "Ġbones": 4973,
      "ingu": 4974,
      "Ġmobile": 4975,
      "Ġcompost": 4976,
      "ĠBoth": 4977,
      "Ġtub": 4978,
      "Ġ2010": 4979,
      "Ġcreation": 4980,
      "ĠGreat": 4981,
      "Ġassemb": 4982,
      "Ġ22": 4983,
      "umps": 4984,
      "ye": 4985,
      "Ġcatch": 4986,
      "igen": 4987,
      "Ġlung": 4988,
      "Ġpurposes": 4989,
      "otic": 4990,
      "ĠDesign": 4991,
      "Ġplayer": 4992,
      "Ġselected": 4993,
      "Ġestimated": 4994,
      "ĠEnergy": 4995,
      "Ġgenerated": 4996,
      "ĠLike": 4997,
      "ras": 4998,
      "Ġfrag": 4999,
      "Ġcrop": 5000,
      "rot": 5001,
      "what": 5002,
      "ava": 5003,
      "Ġstom": 5004,
      "Ġdecor": 5005,
      "arant": 5006,
      "osen": 5007,
      "hemical": 5008,
      "Ġpreviously": 5009,
      "Ġdecrease": 5010,
      "Ġship": 5011,
      "Ġplane": 5012,
      "Ġmild": 5013,
      "organ": 5014,
      "active": 5015,
      "Ġnames": 5016,
      "Ġleaving": 5017,
      "ĠProfess": 5018,
      "Ġaffects": 5019,
      "Ġabsolute": 5020,
      "Ġfailure": 5021,
      "fortun": 5022,
      "Ġbees": 5023,
      "Ġfilled": 5024,
      "Ġminerals": 5025,
      "Ġvisible": 5026,
      "ĠUp": 5027,
      "90": 5028,
      "Ġsequence": 5029,
      "Ġreactions": 5030,
      "Ġcompounds": 5031,
      "rief": 5032,
      "Ġrefers": 5033,
      "Ġelectrons": 5034,
      "Ġspaces": 5035,
      "Ġsouth": 5036,
      "Ġsides": 5037,
      "bles": 5038,
      "dule": 5039,
      "Ġfo": 5040,
      "Ġwaters": 5041,
      "Ġconcepts": 5042,
      "Ġsend": 5043,
      "Ġneuro": 5044,
      "anes": 5045,
      "down": 5046,
      "Ġcultiv": 5047,
      "mark": 5048,
      "Ġdestro": 5049,
      "sec": 5050,
      "Ġpure": 5051,
      "roke": 5052,
      "Ġspirit": 5053,
      "ĠEducation": 5054,
      "Ġrestaur": 5055,
      "PA": 5056,
      "Ġclinical": 5057,
      "Ġlifestyle": 5058,
      "rowing": 5059,
      "ĠAdd": 5060,
      "Ġreferred": 5061,
      "Ġrein": 5062,
      "ĠMc": 5063,
      "Ġcomposition": 5064,
      "ventional": 5065,
      "Ġconcern": 5066,
      "Ġsurvive": 5067,
      "going": 5068,
      "Ġatoms": 5069,
      "Ġstatement": 5070,
      "ii": 5071,
      "Ġradiation": 5072,
      "Ġborn": 5073,
      "Ġconsidering": 5074,
      "Ġcart": 5075,
      "Ġuniverse": 5076,
      "plant": 5077,
      "Ġowner": 5078,
      "Ġversat": 5079,
      "Ġtried": 5080,
      "Ġmotiv": 5081,
      "Ġflood": 5082,
      "Ġproducing": 5083,
      "gy": 5084,
      "lements": 5085,
      "ibilities": 5086,
      "Many": 5087,
      "Ġtomat": 5088,
      "ĠBet": 5089,
      "Ġconducted": 5090,
      "ĠMicro": 5091,
      "Ġperiods": 5092,
      "Ġmechanism": 5093,
      "Ġaid": 5094,
      "Comp": 5095,
      "Ġclassroom": 5096,
      "Ġden": 5097,
      "Ġseek": 5098,
      "ĠPhys": 5099,
      "Ġclothing": 5100,
      "Over": 5101,
      "olf": 5102,
      "ĠWhere": 5103,
      "tion": 5104,
      "Ġacids": 5105,
      "irds": 5106,
      "Ġfamiliar": 5107,
      "De": 5108,
      "lim": 5109,
      "Ġpin": 5110,
      "Ġriver": 5111,
      "75": 5112,
      "Ġannual": 5113,
      "Ġcertainly": 5114,
      "ĠInc": 5115,
      "Ġportion": 5116,
      "Ġextensive": 5117,
      "Ġtraffic": 5118,
      "Ġtechnical": 5119,
      "onal": 5120,
      "ĠPlan": 5121,
      "Ġfeedback": 5122,
      "ypes": 5123,
      "ented": 5124,
      "Ġprem": 5125,
      "Ġchronic": 5126,
      "Ġjump": 5127,
      "Ġparticipants": 5128,
      "stract": 5129,
      "ormal": 5130,
      "rote": 5131,
      "Ġtut": 5132,
      "Ġnorth": 5133,
      "Ġcontrolled": 5134,
      "inese": 5135,
      "Ġvul": 5136,
      "Ġcomputers": 5137,
      "Ġpresented": 5138,
      "Ġotherwise": 5139,
      "ault": 5140,
      "Ġvel": 5141,
      "Ġphotography": 5142,
      "Ġfur": 5143,
      "ĠCare": 5144,
      "Ġslowly": 5145,
      "uracy": 5146,
      "Ġmath": 5147,
      "Ġcm": 5148,
      "pring": 5149,
      "urthermore": 5150,
      ".[": 5151,
      "ĠTake": 5152,
      "Ġaer": 5153,
      "Ġdisorders": 5154,
      "Ġconsists": 5155,
      "Ġessay": 5156,
      "Pre": 5157,
      "Ġshad": 5158,
      "Ġbelong": 5159,
      "ĠPower": 5160,
      "Ġtrip": 5161,
      "Ġcareer": 5162,
      "ĠBas": 5163,
      "Ġvirtual": 5164,
      "Ġrecovery": 5165,
      "Ġspray": 5166,
      "inations": 5167,
      "Ġsharp": 5168,
      "asp": 5169,
      "Ġmechanical": 5170,
      "Ġstable": 5171,
      "ĠPat": 5172,
      "Ġplug": 5173,
      "Ġcapture": 5174,
      "Ġhousehold": 5175,
      "Ġpainting": 5176,
      "Ġbudget": 5177,
      "Ġmap": 5178,
      "Ġskill": 5179,
      "Ġseeing": 5180,
      "ĠJuly": 5181,
      "Ġhoney": 5182,
      "Ġtrade": 5183,
      "ĠMex": 5184,
      "Ġwouldn": 5185,
      "Ġcycl": 5186,
      "Ġvideos": 5187,
      "ĠWild": 5188,
      "ulum": 5189,
      "ially": 5190,
      "ĠExpl": 5191,
      "mp": 5192,
      "Ġdivid": 5193,
      "but": 5194,
      "ugg": 5195,
      "Ġfiles": 5196,
      "Ġabund": 5197,
      "ĠMet": 5198,
      "comp": 5199,
      "Ġ28": 5200,
      "itting": 5201,
      "Ġinflammation": 5202,
      "rie": 5203,
      "Ġrelig": 5204,
      "MS": 5205,
      "Ġsurvival": 5206,
      "Ġtopics": 5207,
      "Ġadvent": 5208,
      "Ġampl": 5209,
      "33": 5210,
      "Ġinfluen": 5211,
      "Ġprinciples": 5212,
      "Ġdamaged": 5213,
      "Ġinternet": 5214,
      "Ġemergency": 5215,
      "Ġurban": 5216,
      "that": 5217,
      "Ġwants": 5218,
      "comes": 5219,
      "Ġvarieties": 5220,
      "Ġcommand": 5221,
      "Ġnormally": 5222,
      "phone": 5223,
      "Ġfunctional": 5224,
      "Ġcooling": 5225,
      "ĠWind": 5226,
      "ĠMark": 5227,
      "Ġprices": 5228,
      "Ġ2011": 5229,
      "Ġshot": 5230,
      "Ġkil": 5231,
      "Ġwhatever": 5232,
      "ĠIS": 5233,
      "ĠHel": 5234,
      "Ġwalking": 5235,
      "ĠCity": 5236,
      "Ġring": 5237,
      "Ġfossil": 5238,
      "Ġinsights": 5239,
      "Ġproduces": 5240,
      "Ġspeaker": 5241,
      "Ġhorses": 5242,
      "Ġshut": 5243,
      "Ġinterp": 5244,
      "ĠAfrican": 5245,
      "Ġdiversity": 5246,
      "Ġunless": 5247,
      "order": 5248,
      "Ġdecades": 5249,
      "aker": 5250,
      "Ġneck": 5251,
      "Ġsong": 5252,
      "Ġclosely": 5253,
      "Ġseconds": 5254,
      "Ġcopper": 5255,
      "Ġgut": 5256,
      "Ġseg": 5257,
      "Ġdomin": 5258,
      "Ġsud": 5259,
      "Ġholes": 5260,
      "Ġdecided": 5261,
      "Ġbelief": 5262,
      "ĠSupp": 5263,
      "aws": 5264,
      "Ġbread": 5265,
      "emy": 5266,
      "ĠPlant": 5267,
      "how": 5268,
      "Ġinject": 5269,
      "west": 5270,
      "Ġrepresents": 5271,
      "gin": 5272,
      "ĠSeptember": 5273,
      "ĠFound": 5274,
      "Ġfer": 5275,
      "More": 5276,
      "ossible": 5277,
      "Ġsufficient": 5278,
      "Ġmixed": 5279,
      "ĠII": 5280,
      "ĠSan": 5281,
      "raining": 5282,
      "Ġlinked": 5283,
      "amental": 5284,
      "US": 5285,
      "Ġdishes": 5286,
      "ĠAugust": 5287,
      "Ġguess": 5288,
      "Ġwarming": 5289,
      "Ġturns": 5290,
      "Ġcopy": 5291,
      "ĠKing": 5292,
      "Ġtested": 5293,
      "fall": 5294,
      "aul": 5295,
      "Ġbreath": 5296,
      "........": 5297,
      "Ġtoler": 5298,
      "ardens": 5299,
      "Ġcontaining": 5300,
      "Ġvoice": 5301,
      "Ġchocolate": 5302,
      "ĠAbout": 5303,
      "ĠFeb": 5304,
      "IL": 5305,
      "Ġcarried": 5306,
      "Cons": 5307,
      "Ġpages": 5308,
      "ĠKnow": 5309,
      "Ġmolecular": 5310,
      "Ġlocations": 5311,
      "Ġenable": 5312,
      "Ġcolon": 5313,
      "Ġwasn": 5314,
      "ara": 5315,
      "ĠDiff": 5316,
      "ĠMain": 5317,
      "ĠSch": 5318,
      "oster": 5319,
      "'.": 5320,
      "99": 5321,
      "ĠNet": 5322,
      "Ġhoriz": 5323,
      "ĠSaf": 5324,
      "Ġremote": 5325,
      "Ġdownload": 5326,
      "Ġspent": 5327,
      "cons": 5328,
      "Ġmarketing": 5329,
      "ĠFlor": 5330,
      "Ġformat": 5331,
      "Ġintake": 5332,
      "airy": 5333,
      "Ġclearly": 5334,
      "Ġsed": 5335,
      "Ġtube": 5336,
      "hors": 5337,
      "paration": 5338,
      "rus": 5339,
      "Ġhop": 5340,
      "Ġdefinition": 5341,
      "Ġsurvey": 5342,
      "Ġrights": 5343,
      "Ġassessment": 5344,
      "Ġcorrectly": 5345,
      "Ġstomach": 5346,
      "ĠConsider": 5347,
      "Ġsudden": 5348,
      "long": 5349,
      "Ġban": 5350,
      "Ġanswers": 5351,
      "ovember": 5352,
      "Ġconfirm": 5353,
      "âĢ²": 5354,
      "Ġcloser": 5355,
      "Ġstation": 5356,
      "pert": 5357,
      "Ġinteractions": 5358,
      "Ġsolve": 5359,
      "Ġscenari": 5360,
      "Ġmulti": 5361,
      "Ġbegins": 5362,
      "Ġdatab": 5363,
      "Ġfoundation": 5364,
      "idden": 5365,
      "vis": 5366,
      "aked": 5367,
      "ognitive": 5368,
      "Ġputting": 5369,
      "Ġpercentage": 5370,
      "ĠInstead": 5371,
      "orous": 5372,
      "Ġrow": 5373,
      "Conclusion": 5374,
      "Ġdress": 5375,
      "Ġcorrespond": 5376,
      "Ġattrib": 5377,
      "ache": 5378,
      "Ġ26": 5379,
      "ĠSub": 5380,
      "Ġpowder": 5381,
      "Ġcalcium": 5382,
      "Ġphenomen": 5383,
      "Ġcab": 5384,
      "Ġfacilit": 5385,
      "box": 5386,
      "Ġsou": 5387,
      "Not": 5388,
      "Ġattached": 5389,
      "Ġphysics": 5390,
      "Ġinner": 5391,
      "yth": 5392,
      "Ġformula": 5393,
      "ĠCheck": 5394,
      "Ġgall": 5395,
      "Ġpounds": 5396,
      "ĠEngine": 5397,
      "lege": 5398,
      "Ġcreatures": 5399,
      "ias": 5400,
      "iler": 5401,
      "ĠThus": 5402,
      "Ġahead": 5403,
      "Ġreduces": 5404,
      "dy": 5405,
      ");": 5406,
      "Ġguidelines": 5407,
      "Ġtum": 5408,
      "Ġviol": 5409,
      "Ġaudience": 5410,
      "acters": 5411,
      "Ġinvestment": 5412,
      "gans": 5413,
      "Ġdecide": 5414,
      "Ġchlor": 5415,
      "Ġengage": 5416,
      "Ġbear": 5417,
      "Ġvast": 5418,
      "Ġcompr": 5419,
      "Ġhelped": 5420,
      "TS": 5421,
      "Ġrab": 5422,
      "Ġpregnancy": 5423,
      "icon": 5424,
      "cel": 5425,
      "Ġcollege": 5426,
      "Ġaccuracy": 5427,
      "arsh": 5428,
      "Ġshift": 5429,
      "Ġscr": 5430,
      "âĪ": 5431,
      "Ġturning": 5432,
      "Ġbigger": 5433,
      "Ġbalanced": 5434,
      "Ġjud": 5435,
      "Ġrefrig": 5436,
      "Ġhappened": 5437,
      "Ġadminist": 5438,
      "Ġstages": 5439,
      "Ġhunting": 5440,
      "Ġvolun": 5441,
      "ĠThrough": 5442,
      "Ġapproaches": 5443,
      "Ġbuying": 5444,
      "ander": 5445,
      "Ġcredit": 5446,
      "Ġnovel": 5447,
      "Ġreports": 5448,
      "Let": 5449,
      "ruary": 5450,
      "Ġ{": 5451,
      "rors": 5452,
      "IV": 5453,
      "Ġmeals": 5454,
      "First": 5455,
      "Ġgun": 5456,
      "Ġbroken": 5457,
      "Ġinstruction": 5458,
      "Ġunivers": 5459,
      "Ġobtained": 5460,
      "Ġwindows": 5461,
      "ait": 5462,
      "Ġdoub": 5463,
      "ĠPol": 5464,
      "Cont": 5465,
      "sm": 5466,
      "New": 5467,
      "cember": 5468,
      "urch": 5469,
      "Ġmeeting": 5470,
      "Ġdisorder": 5471,
      "Ġmir": 5472,
      "ĠOctober": 5473,
      "ĠpH": 5474,
      "ama": 5475,
      "ado": 5476,
      "fortunately": 5477,
      "Ġbuildings": 5478,
      "Ġdent": 5479,
      "According": 5480,
      "Ġdefinitely": 5481,
      "Ġinteraction": 5482,
      "ĠDec": 5483,
      "Ġcomment": 5484,
      "Ġlooked": 5485,
      "roid": 5486,
      "Ġblow": 5487,
      "etics": 5488,
      "Ġsport": 5489,
      "kin": 5490,
      "Under": 5491,
      "Ġfixed": 5492,
      "Ġlawn": 5493,
      "eria": 5494,
      "ifier": 5495,
      "oding": 5496,
      "Ġlaser": 5497,
      "Ġmal": 5498,
      "IP": 5499,
      "vents": 5500,
      "eless": 5501,
      "Ġvulner": 5502,
      "allel": 5503,
      "Ġcorn": 5504,
      "Ġcareful": 5505,
      "ĠCounty": 5506,
      "Ġagre": 5507,
      "cope": 5508,
      "Ġintended": 5509,
      "Ġcooked": 5510,
      "Ġinstit": 5511,
      "Ġeconomy": 5512,
      "Ġnar": 5513,
      "Ġrapidly": 5514,
      "ĠStep": 5515,
      "ĠJanuary": 5516,
      "arn": 5517,
      "Ġsuggested": 5518,
      "Ġperspective": 5519,
      "Ġpup": 5520,
      "eling": 5521,
      "Ġinstalled": 5522,
      "ynt": 5523,
      "Ġclosed": 5524,
      "Ġmedication": 5525,
      "apor": 5526,
      "Ġprompt": 5527,
      "Ġhabits": 5528,
      "orter": 5529,
      "irus": 5530,
      "Ġdiscussion": 5531,
      "oys": 5532,
      "hips": 5533,
      "mic": 5534,
      "ifications": 5535,
      "ĠCOVID": 5536,
      "Ġsharing": 5537,
      "Ġwoman": 5538,
      "Ġseven": 5539,
      "Ġprey": 5540,
      "Ġaccum": 5541,
      "uter": 5542,
      "ĠProt": 5543,
      "Ġpassed": 5544,
      "Ġworkers": 5545,
      "ĠProject": 5546,
      "Ġworldwide": 5547,
      "nect": 5548,
      "Ġpests": 5549,
      "Ġproport": 5550,
      "Ġdeeper": 5551,
      "Ġfig": 5552,
      "Ġenthus": 5553,
      "Ġadds": 5554,
      "Ġtight": 5555,
      "Ġprotected": 5556,
      "bra": 5557,
      "Ġbio": 5558,
      "ivery": 5559,
      "Ġmedications": 5560,
      "Ġindependent": 5561,
      "Use": 5562,
      "Ġpreventing": 5563,
      "Ġcollected": 5564,
      "Ġfundamental": 5565,
      "Ġinnovative": 5566,
      "Ġconnections": 5567,
      "Ġdoll": 5568,
      "Ġraised": 5569,
      "ĠSee": 5570,
      "Ġdioxide": 5571,
      "Ġshoes": 5572,
      "Ġlesson": 5573,
      "ocking": 5574,
      "ctic": 5575,
      "ionally": 5576,
      "Dr": 5577,
      "Ġfirm": 5578,
      "ĠOff": 5579,
      "Ġinjuries": 5580,
      "Ġagriculture": 5581,
      "Ġbaking": 5582,
      "Ġboat": 5583,
      "Ġtwice": 5584,
      "Ġnation": 5585,
      "Ġindu": 5586,
      "Ġsheet": 5587,
      "',": 5588,
      "gers": 5589,
      "uzz": 5590,
      "Ġfurniture": 5591,
      "36": 5592,
      "Ġdecl": 5593,
      "Ġwash": 5594,
      "ĠChinese": 5595,
      "Ġliver": 5596,
      "uum": 5597,
      "Ġsubstance": 5598,
      "Ġnitrogen": 5599,
      "asses": 5600,
      "ĠLearning": 5601,
      "Ġsick": 5602,
      "ĠTex": 5603,
      "vit": 5604,
      "Ġagree": 5605,
      "Ġbiology": 5606,
      "Ġnurs": 5607,
      "Ġgather": 5608,
      "ĠOrgan": 5609,
      "volution": 5610,
      "iance": 5611,
      "ĠMus": 5612,
      "Ġoffered": 5613,
      "Ġpanel": 5614,
      "Fe": 5615,
      "oke": 5616,
      "ags": 5617,
      "Ġalumin": 5618,
      "Ġcul": 5619,
      "pected": 5620,
      "ĠBen": 5621,
      "Ġsustainability": 5622,
      "Ġtow": 5623,
      "Ġlessons": 5624,
      "Ġstain": 5625,
      "Ġstability": 5626,
      "Ġthoughts": 5627,
      "iated": 5628,
      "Ġhardware": 5629,
      "ĠTechnology": 5630,
      "Ġopening": 5631,
      "Ġmeant": 5632,
      "Ġmathemat": 5633,
      "eras": 5634,
      "ĠLab": 5635,
      "bur": 5636,
      "ĠIN": 5637,
      "Ġ>": 5638,
      "Ġrace": 5639,
      "Ġgreenhouse": 5640,
      "Ġdiagnosis": 5641,
      "Ġraise": 5642,
      "asure": 5643,
      "iled": 5644,
      "Ġstring": 5645,
      "isation": 5646,
      "Ġperman": 5647,
      "Ġremoving": 5648,
      "Ġcharacters": 5649,
      "Ġbiod": 5650,
      "Ġexplan": 5651,
      "OL": 5652,
      "Ġpossess": 5653,
      "ĠAnother": 5654,
      "CC": 5655,
      "Ġaccident": 5656,
      "Ġord": 5657,
      "Ġmanner": 5658,
      "Ġyield": 5659,
      "oyal": 5660,
      "Ġcompound": 5661,
      "Sp": 5662,
      "Rem": 5663,
      "Ġbiggest": 5664,
      "Ġregulations": 5665,
      "asive": 5666,
      "Ġdepression": 5667,
      "ĠLight": 5668,
      "500": 5669,
      "ĠDav": 5670,
      "Ġarray": 5671,
      "Ġthermal": 5672,
      "rust": 5673,
      "Ġtransp": 5674,
      "amins": 5675,
      "Ġdiscovery": 5676,
      "Ġcompleted": 5677,
      "Ġfelt": 5678,
      "Ġforget": 5679,
      "Ġmovements": 5680,
      "Ġincreasingly": 5681,
      "Ġschedule": 5682,
      "Ġparas": 5683,
      "acific": 5684,
      "Ġmoved": 5685,
      "Ġflying": 5686,
      "Ġexplains": 5687,
      "Ġdelicious": 5688,
      "ndrome": 5689,
      "Ġdrinking": 5690,
      "Ġrecipe": 5691,
      "Ġexperiments": 5692,
      "Ġblocks": 5693,
      "ĠCollege": 5694,
      "mers": 5695,
      "Ġath": 5696,
      "Ġoverl": 5697,
      "apers": 5698,
      "Ġdefic": 5699,
      "charge": 5700,
      "Ġtrained": 5701,
      "Ġrecognize": 5702,
      "Ġexciting": 5703,
      "Ġconsumers": 5704,
      "ener": 5705,
      "lin": 5706,
      "Ġnotes": 5707,
      "reek": 5708,
      "ĠControl": 5709,
      "32": 5710,
      "rooms": 5711,
      "Ġexplained": 5712,
      "From": 5713,
      "een": 5714,
      "Ġdiscussed": 5715,
      "Ġvariable": 5716,
      "ĠOb": 5717,
      "Ġflour": 5718,
      "Ġcoal": 5719,
      "Ġprofessor": 5720,
      "Ġoven": 5721,
      "Ġemotions": 5722,
      "dent": 5723,
      "roph": 5724,
      "Ġfinish": 5725,
      "ocity": 5726,
      "ographic": 5727,
      "uilding": 5728,
      "Ġenab": 5729,
      "Ġ2021": 5730,
      "ĠGarden": 5731,
      "Ġoccup": 5732,
      "Ġexcessive": 5733,
      "Although": 5734,
      "Ġinsurance": 5735,
      "Ġhaven": 5736,
      "edia": 5737,
      "Ġinstallation": 5738,
      "Ġworse": 5739,
      "Ġsubstances": 5740,
      "Ġretain": 5741,
      "Ġdedicated": 5742,
      "Ġsupplement": 5743,
      "Ġcapabilities": 5744,
      "rue": 5745,
      "Ġlibrary": 5746,
      "ĠDet": 5747,
      "Ġexploring": 5748,
      "Ġbelieved": 5749,
      "Ġdetection": 5750,
      "Ġemployees": 5751,
      "Ġdespite": 5752,
      "Ġpreserv": 5753,
      "Ġindustries": 5754,
      "Ġconfidence": 5755,
      "Ġoutcomes": 5756,
      "Ġseeking": 5757,
      "Ġcommunicate": 5758,
      "Ġfamous": 5759,
      "Ġopposite": 5760,
      "Ġclothes": 5761,
      "ĠĠĠ": 5762,
      "ĠSun": 5763,
      "CH": 5764,
      "atin": 5765,
      "alks": 5766,
      "Ġprocedures": 5767,
      "icing": 5768,
      "Ġfriendly": 5769,
      "Ġdriver": 5770,
      "Ġment": 5771,
      "Ġtor": 5772,
      "inn": 5773,
      "Ġcovers": 5774,
      "aning": 5775,
      "ĠCat": 5776,
      "ompl": 5777,
      "Ġ27": 5778,
      "Ġforests": 5779,
      "Ġpreferences": 5780,
      "Ġpolar": 5781,
      "ĠStart": 5782,
      "rite": 5783,
      "Ġcos": 5784,
      "ĠGerman": 5785,
      "ĠAng": 5786,
      "Ġinformed": 5787,
      "ĠTest": 5788,
      "ĠTV": 5789,
      "iform": 5790,
      "Ġindex": 5791,
      "Ġbehaviors": 5792,
      "Ġequation": 5793,
      "Ġsuccessfully": 5794,
      "ĠStudents": 5795,
      "aint": 5796,
      "iest": 5797,
      "Ġpanels": 5798,
      "ĠFlorida": 5799,
      "Ġitem": 5800,
      "Ġregul": 5801,
      "Ġgave": 5802,
      "Ġstores": 5803,
      "ĠRuss": 5804,
      "ocy": 5805,
      "Ġreplaced": 5806,
      "Ġsauce": 5807,
      "eries": 5808,
      "LE": 5809,
      "Ġdiagram": 5810,
      "arium": 5811,
      "Ġrocks": 5812,
      "Ġadequ": 5813,
      "Ġcircum": 5814,
      "IM": 5815,
      "01": 5816,
      "ker": 5817,
      "Ġcompetition": 5818,
      "38": 5819,
      "Ġrig": 5820,
      "Ġspots": 5821,
      "Ġunlike": 5822,
      "Ġsensors": 5823,
      "itors": 5824,
      "Ġdram": 5825,
      "ĠMich": 5826,
      "Ġdrag": 5827,
      "cule": 5828,
      "Ġequival": 5829,
      "Ġconsequences": 5830,
      "Ġaest": 5831,
      "Ġprogramming": 5832,
      "Reg": 5833,
      "oper": 5834,
      "Ġpossibly": 5835,
      "Ġhospital": 5836,
      "eren": 5837,
      "Ġhistorical": 5838,
      "Ġunderlying": 5839,
      "Ġagricultural": 5840,
      "Ġ35": 5841,
      "ĠLa": 5842,
      "ĠGold": 5843,
      "ĠWhite": 5844,
      "Ġconventional": 5845,
      "Ġcalories": 5846,
      "ĠLife": 5847,
      "Ġears": 5848,
      "Ġtip": 5849,
      "Ġknows": 5850,
      "cal": 5851,
      "Ġpeace": 5852,
      "Ġmembrane": 5853,
      "ĠHome": 5854,
      "anted": 5855,
      "Ġstudying": 5856,
      "Ġmission": 5857,
      "ĠWork": 5858,
      "ĠExam": 5859,
      "Ġoperate": 5860,
      "hand": 5861,
      "ĠTexas": 5862,
      "Ġpros": 5863,
      "ophy": 5864,
      "ãĤ": 5865,
      "Ġcompare": 5866,
      "ĠTwo": 5867,
      "Ġwearing": 5868,
      "Ġplayed": 5869,
      "Ġmeasurement": 5870,
      "Ġcoordin": 5871,
      "from": 5872,
      "ĠSet": 5873,
      "well": 5874,
      "Ġsales": 5875,
      "reate": 5876,
      "Ġmechanisms": 5877,
      "44": 5878,
      "Ġphysic": 5879,
      "Ġrecords": 5880,
      "Ġguidance": 5881,
      "riers": 5882,
      "ĠRemember": 5883,
      "ĠSociety": 5884,
      "ascular": 5885,
      "Ġusage": 5886,
      "opic": 5887,
      "Ġmineral": 5888,
      "Ġmetals": 5889,
      "vin": 5890,
      "Ġconstantly": 5891,
      "Ġfan": 5892,
      "Ġrecorded": 5893,
      "Ġcardi": 5894,
      "ifies": 5895,
      "ĠEast": 5896,
      "unning": 5897,
      "Ġpolic": 5898,
      "idents": 5899,
      "ĠRel": 5900,
      "ford": 5901,
      "Ġpark": 5902,
      "Ġvaccine": 5903,
      "ĠToday": 5904,
      "zer": 5905,
      "39": 5906,
      "Ġoral": 5907,
      "stream": 5908,
      "Ġages": 5909,
      "Ġswimming": 5910,
      "uis": 5911,
      "iber": 5912,
      "uits": 5913,
      "Ġruns": 5914,
      "ĠGood": 5915,
      "Ġ2009": 5916,
      "bris": 5917,
      "ĠRef": 5918,
      "itter": 5919,
      "otes": 5920,
      "Ġconflic": 5921,
      "Ġstrain": 5922,
      "Ġhandling": 5923,
      "Ġends": 5924,
      "Ġnutrient": 5925,
      "05": 5926,
      "ĠExt": 5927,
      "Ġindoor": 5928,
      "ĠAsia": 5929,
      "Ġmanual": 5930,
      "Ġstands": 5931,
      "ĠAssociation": 5932,
      "Ġfacts": 5933,
      "vol": 5934,
      "Ġ45": 5935,
      "Ġbrid": 5936,
      "ĠAtl": 5937,
      "Ġloose": 5938,
      "Ġcoc": 5939,
      "Ġyog": 5940,
      "ĠHave": 5941,
      "Ġmanufacturer": 5942,
      "ĠTur": 5943,
      "no": 5944,
      "Ġsecondary": 5945,
      "Ġincl": 5946,
      "Ġreward": 5947,
      "Ġnerve": 5948,
      "Ġrecycling": 5949,
      "acts": 5950,
      "App": 5951,
      "arter": 5952,
      "Ġion": 5953,
      "Ġtruth": 5954,
      "athy": 5955,
      "Ġzone": 5956,
      "AB": 5957,
      "Ġpuppy": 5958,
      "ĠTHE": 5959,
      "Ġshed": 5960,
      "Ġwrote": 5961,
      "Ġcalls": 5962,
      "cest": 5963,
      "Ġmoves": 5964,
      "Ġentirely": 5965,
      "Ġmissing": 5966,
      "ĠBre": 5967,
      "Ġcontinued": 5968,
      "rence": 5969,
      "tt": 5970,
      "Ġdynamic": 5971,
      "Ġinterpret": 5972,
      "Ġremaining": 5973,
      "Ġreserv": 5974,
      "iders": 5975,
      "Ġnose": 5976,
      "Ġbasically": 5977,
      "Ġproposed": 5978,
      "ĠJour": 5979,
      "----------------": 5980,
      "iam": 5981,
      "Ġmice": 5982,
      "ridge": 5983,
      "Ġfemales": 5984,
      "Ġdestroy": 5985,
      "Ġsupports": 5986,
      "la": 5987,
      "Ġacademic": 5988,
      "ĠColor": 5989,
      "Ġteams": 5990,
      "bility": 5991,
      "Ġwish": 5992,
      "Ġauthors": 5993,
      "iability": 5994,
      "overn": 5995,
      "Ġconsume": 5996,
      "Ġstudied": 5997,
      "ĠService": 5998,
      "ĠFore": 5999,
      "ham": 6000,
      "Ġhumidity": 6001,
      "Ġspeech": 6002,
      "ffective": 6003,
      "ĠBel": 6004,
      "fe": 6005,
      "Ġye": 6006,
      "Ġinterface": 6007,
      "ota": 6008,
      "Ġkeeps": 6009,
      "Ġfollows": 6010,
      "Ġbranches": 6011,
      "win": 6012,
      "Ġsecret": 6013,
      "Ġindicates": 6014,
      "Ġcards": 6015,
      "Ġdelivery": 6016,
      "##": 6017,
      "Ġsession": 6018,
      "Ġvalid": 6019,
      "ĠLook": 6020,
      "Ġcontinuous": 6021,
      "Ġsky": 6022,
      "Te": 6023,
      "ĠNovember": 6024,
      "Ġletter": 6025,
      "Ġtrends": 6026,
      "Ġchannel": 6027,
      "riculum": 6028,
      "Ġdepos": 6029,
      "cher": 6030,
      "Ġshade": 6031,
      "men": 6032,
      "Ġrevolution": 6033,
      "Ġparallel": 6034,
      "ĠDef": 6035,
      "Ġbreathing": 6036,
      "ĠDist": 6037,
      "Ġvalve": 6038,
      "//": 6039,
      "Ġpoison": 6040,
      "Ġcities": 6041,
      "acc": 6042,
      "Ġsupporting": 6043,
      "Ġlinks": 6044,
      "Ġpolitical": 6045,
      "Ġchart": 6046,
      "itches": 6047,
      "Ġrequest": 6048,
      "Ġrecept": 6049,
      "Ġachieved": 6050,
      "Ġimagine": 6051,
      "Ġparameters": 6052,
      "amps": 6053,
      "Ġhundreds": 6054,
      "Ġreplacement": 6055,
      "Ġarticles": 6056,
      "Ġnetworks": 6057,
      "Ġcourses": 6058,
      "otton": 6059,
      "Ġske": 6060,
      "Ġjobs": 6061,
      "Ġbehaviour": 6062,
      "Ġped": 6063,
      "Ġfinally": 6064,
      "Or": 6065,
      "ked": 6066,
      "Ġengaging": 6067,
      "amil": 6068,
      "Ġedges": 6069,
      "ĠSea": 6070,
      "Ġmes": 6071,
      "berry": 6072,
      "Ġaccompl": 6073,
      "Ġscene": 6074,
      "haust": 6075,
      "Ġphosph": 6076,
      "ĠGuide": 6077,
      "Ġmyself": 6078,
      "lers": 6079,
      "Ġfeelings": 6080,
      "itivity": 6081,
      "Ġanywhere": 6082,
      "Ġweigh": 6083,
      "Ġfarming": 6084,
      "Ġinnovation": 6085,
      "Ġmining": 6086,
      "uls": 6087,
      "Get": 6088,
      "Ġknowing": 6089,
      "cover": 6090,
      "Ġgravity": 6091,
      "Ġbreeds": 6092,
      "Ġbeans": 6093,
      "Ġmeasurements": 6094,
      "ĠExper": 6095,
      "Ġtitle": 6096,
      "Ġ197": 6097,
      "Ġinch": 6098,
      "azon": 6099,
      "rastructure": 6100,
      "Ġcreativity": 6101,
      "cific": 6102,
      "Ġcord": 6103,
      "Ġtissues": 6104,
      "Ġsusp": 6105,
      "Ġrestrict": 6106,
      "Ġmillions": 6107,
      "Ġaccessible": 6108,
      "Figure": 6109,
      "Ġ500": 6110,
      "ĠDecember": 6111,
      "Ġapplying": 6112,
      "Ġmassive": 6113,
      "Ġtropical": 6114,
      "><": 6115,
      "Rec": 6116,
      "Ġframew": 6117,
      "Ġlisted": 6118,
      "Ġsight": 6119,
      "Ġcloud": 6120,
      "Me": 6121,
      "Ġobst": 6122,
      "Ġfacilities": 6123,
      "Ġsubstant": 6124,
      "Ġsen": 6125,
      "ĠOcean": 6126,
      "Ġarrange": 6127,
      "Ġdirt": 6128,
      "ĠTime": 6129,
      "Ġextended": 6130,
      "Ġstronger": 6131,
      "Ġdebris": 6132,
      "Ġtransportation": 6133,
      "48": 6134,
      "Ġthrive": 6135,
      "Ġbags": 6136,
      "oves": 6137,
      "ĠBay": 6138,
      "Ġstyles": 6139,
      "Ġsatisf": 6140,
      "Ġ2008": 6141,
      "ĠNature": 6142,
      "TM": 6143,
      "Ġtrigger": 6144,
      "Ġride": 6145,
      "Ġresponses": 6146,
      "ĠPlease": 6147,
      "Ġvertical": 6148,
      "uts": 6149,
      "you": 6150,
      "Ġscrew": 6151,
      "ĠScient": 6152,
      "Ġcheap": 6153,
      "Ġexercises": 6154,
      "ĠOF": 6155,
      "Ġ300": 6156,
      "Ġmort": 6157,
      "antly": 6158,
      "Ind": 6159,
      "Ġtap": 6160,
      "Ġserves": 6161,
      "Ġchapter": 6162,
      "Ġcognitive": 6163,
      "Ġmales": 6164,
      "ĠWorks": 6165,
      "earchers": 6166,
      "Ġvegetable": 6167,
      "ĠNatural": 6168,
      "Ġpurs": 6169,
      "Ġsupported": 6170,
      "iratory": 6171,
      "Ġcameras": 6172,
      "Ġorange": 6173,
      "ãĥ": 6174,
      "Pe": 6175,
      "Ġbrief": 6176,
      "Ġminute": 6177,
      "Ġcrus": 6178,
      "ĠMac": 6179,
      "Ġgro": 6180,
      "Ġeveryday": 6181,
      "Ġsafely": 6182,
      "Ġkne": 6183,
      "Ġmilitary": 6184,
      "Ġrefriger": 6185,
      "Ġimprovement": 6186,
      "Ġtea": 6187,
      "ĠOpen": 6188,
      "Ġlenses": 6189,
      "Ġcommitment": 6190,
      "Ġran": 6191,
      "ĠRob": 6192,
      "Ġouter": 6193,
      "ĠFebruary": 6194,
      "Ġblo": 6195,
      "Ġwashing": 6196,
      "Ġbite": 6197,
      "Ġdim": 6198,
      "alled": 6199,
      "Ġserved": 6200,
      "Ġsector": 6201,
      "Ġseam": 6202,
      "Ġgardens": 6203,
      "ondon": 6204,
      "Ġpreparation": 6205,
      "lings": 6206,
      "Ġgone": 6207,
      "Ġcontrols": 6208,
      "comm": 6209,
      "ĠPacific": 6210,
      "Ġholds": 6211,
      "Le": 6212,
      "ĠWashing": 6213,
      "Ġopinion": 6214,
      "BC": 6215,
      "Ġclock": 6216,
      "Ġjew": 6217,
      "Ġimpossible": 6218,
      "onge": 6219,
      "Ġalt": 6220,
      "level": 6221,
      "Ġminimize": 6222,
      "uing": 6223,
      "Ġdiameter": 6224,
      "Ġengines": 6225,
      "Before": 6226,
      "ĠCD": 6227,
      "ĠEngland": 6228,
      "Ġmm": 6229,
      "Ġassistance": 6230,
      "Ġfrequent": 6231,
      "Ġgardening": 6232,
      "nel": 6233,
      "37": 6234,
      "ĠDevelopment": 6235,
      "Ġinfected": 6236,
      "ĠIsland": 6237,
      "Ġvitamins": 6238,
      "Ġformer": 6239,
      "ĠAP": 6240,
      "outs": 6241,
      "Ġmanip": 6242,
      "Ġveterin": 6243,
      "Ġham": 6244,
      "Ġrenewable": 6245,
      "Ġprotective": 6246,
      "Ġembra": 6247,
      "Ġgrows": 6248,
      "Ġinhib": 6249,
      "Ġasking": 6250,
      "Ġshif": 6251,
      "Ġbank": 6252,
      "Ġguarant": 6253,
      "Ġdelay": 6254,
      "âĢĭ": 6255,
      "Ġwhereas": 6256,
      "Ġvelocity": 6257,
      "rix": 6258,
      "Ġminor": 6259,
      "fit": 6260,
      "Ġplus": 6261,
      "Ġspecialized": 6262,
      "Ġjoin": 6263,
      "ĠVol": 6264,
      "inated": 6265,
      "Ġdescription": 6266,
      "Ġpest": 6267,
      "Ġchosen": 6268,
      "under": 6269,
      "65": 6270,
      "asy": 6271,
      "ĠInf": 6272,
      "Ġgreatly": 6273,
      "Ġfault": 6274,
      "Ġchromos": 6275,
      "Ġthanks": 6276,
      "Ġefficiently": 6277,
      "Ġalgorithms": 6278,
      "Ġcampa": 6279,
      "ĠCam": 6280,
      "osal": 6281,
      "Ġmountain": 6282,
      "ĠHistory": 6283,
      "Since": 6284,
      "Ġmeasuring": 6285,
      "ĠData": 6286,
      "Ġirrit": 6287,
      "illa": 6288,
      "Ġhabitats": 6289,
      "Ġabsorb": 6290,
      "ĠMedic": 6291,
      "Ġresponsibility": 6292,
      "ĠSum": 6293,
      "ette": 6294,
      "Ġintroduction": 6295,
      "ĠSl": 6296,
      "ulin": 6297,
      "Ġtrim": 6298,
      "Ġparty": 6299,
      "roc": 6300,
      "akers": 6301,
      "Ġartists": 6302,
      "Ġbrings": 6303,
      "inction": 6304,
      "Ġvacuum": 6305,
      "ĠCommon": 6306,
      "Ġcyl": 6307,
      "ĠPhil": 6308,
      "Ġstructural": 6309,
      "Ġtaught": 6310,
      "agnetic": 6311,
      "son": 6312,
      "Ġmanufacturers": 6313,
      "Ġvolunte": 6314,
      "using": 6315,
      "EO": 6316,
      "Ġrely": 6317,
      "pling": 6318,
      "Ġton": 6319,
      "Ġol": 6320,
      "Ġcollaboration": 6321,
      "Ġmolecule": 6322,
      "ĠPort": 6323,
      "zed": 6324,
      "Ġpix": 6325,
      "Ġexpertise": 6326,
      "ĠChildren": 6327,
      "Ġherb": 6328,
      "Ġchol": 6329,
      "Ġcast": 6330,
      "Ġcolleag": 6331,
      "Ġ?": 6332,
      "Ġbee": 6333,
      "Ġminimal": 6334,
      "Ġunus": 6335,
      "34": 6336,
      "esity": 6337,
      "Ġfinished": 6338,
      "ĠJapanese": 6339,
      "Ġpassion": 6340,
      "Ġfascinating": 6341,
      "atur": 6342,
      "Ġmeters": 6343,
      "stone": 6344,
      "ĠMuse": 6345,
      "ĠOpt": 6346,
      "Ġseal": 6347,
      "Ġsitting": 6348,
      "Ġdistingu": 6349,
      "Ġorgans": 6350,
      "=\"": 6351,
      "Ġremoval": 6352,
      "Ġcivil": 6353,
      "Ġinterview": 6354,
      "ĠManagement": 6355,
      "tic": 6356,
      "anged": 6357,
      "log": 6358,
      "Ġpromoting": 6359,
      "ĠBro": 6360,
      "Ġneutral": 6361,
      "ĠLearn": 6362,
      "Ġscan": 6363,
      "ĠRet": 6364,
      "Ġstars": 6365,
      "Ġenthusi": 6366,
      "Ġstanding": 6367,
      "Ġhappening": 6368,
      "Ġloved": 6369,
      "Ġvine": 6370,
      "ĠSal": 6371,
      "Ġinterior": 6372,
      "Ġalgorithm": 6373,
      "Ġcere": 6374,
      "angle": 6375,
      "ĠYear": 6376,
      "Ġvessels": 6377,
      "alysis": 6378,
      "obal": 6379,
      "Ġremark": 6380,
      "abil": 6381,
      "Ġconfig": 6382,
      "Ġsouthern": 6383,
      "Ġfewer": 6384,
      "Ġdatabase": 6385,
      "Ġpredators": 6386,
      "aughter": 6387,
      "istor": 6388,
      "TH": 6389,
      "umes": 6390,
      "Ġamb": 6391,
      "opl": 6392,
      "Ġtire": 6393,
      "Ġchemistry": 6394,
      "Ġconcerned": 6395,
      "Ġflavors": 6396,
      "Ġcontamin": 6397,
      "Ġmicrob": 6398,
      "avy": 6399,
      "Ġcharging": 6400,
      "Ġnorthern": 6401,
      "Ġdomestic": 6402,
      "Ġexpans": 6403,
      "ods": 6404,
      "normal": 6405,
      "Ġcable": 6406,
      "Ġretur": 6407,
      "Ġequivalent": 6408,
      "ython": 6409,
      "Ġcomparison": 6410,
      "angered": 6411,
      "Ġmanaging": 6412,
      "Ġsuffer": 6413,
      "ĠBefore": 6414,
      "Ġprinciple": 6415,
      "Ġresol": 6416,
      "Ġbowl": 6417,
      "Ġattend": 6418,
      "Ġultimately": 6419,
      "ontal": 6420,
      "Ġvict": 6421,
      "ĠDog": 6422,
      "Ġnoted": 6423,
      "mas": 6424,
      "Ġecosystems": 6425,
      "ĠWeb": 6426,
      "sts": 6427,
      "pet": 6428,
      "Ġdivided": 6429,
      "Ġlisten": 6430,
      "Ġargument": 6431,
      "Ġ29": 6432,
      "Ġfeels": 6433,
      "then": 6434,
      "Ġresil": 6435,
      "Ġautomatically": 6436,
      "ĠStand": 6437,
      "Ġtutorial": 6438,
      "Using": 6439,
      "Ġluck": 6440,
      "Ġ2000": 6441,
      "astern": 6442,
      "Ġrecognition": 6443,
      "Ġplatforms": 6444,
      "Ġsupplies": 6445,
      "Ġsoap": 6446,
      "ket": 6447,
      "Ġpipe": 6448,
      "Stud": 6449,
      "ĠVis": 6450,
      "ĠAmericans": 6451,
      "Ġatom": 6452,
      "band": 6453,
      "Ġlik": 6454,
      "Ġease": 6455,
      "SP": 6456,
      "ĠTer": 6457,
      "Ġattach": 6458,
      "Ġsignificance": 6459,
      "Ġdimens": 6460,
      "uous": 6461,
      "ĠAD": 6462,
      "Ġlaboratory": 6463,
      "ĠAM": 6464,
      "Ġtrouble": 6465,
      "Ġexhaust": 6466,
      "Ġcas": 6467,
      ".âĢĿ": 6468,
      "Ġunw": 6469,
      "Rel": 6470,
      "AI": 6471,
      "Ġreached": 6472,
      "Ġcorner": 6473,
      "Ġdairy": 6474,
      "Ġclassic": 6475,
      "ĠFoundation": 6476,
      "Ġchances": 6477,
      "Ġblind": 6478,
      "PT": 6479,
      "Ġwatching": 6480,
      "Ġsessions": 6481,
      "phones": 6482,
      "enses": 6483,
      "Ġadvert": 6484,
      "Ġperfectly": 6485,
      "press": 6486,
      "Ġalter": 6487,
      "Ġinsulation": 6488,
      "ommod": 6489,
      "Ġexchange": 6490,
      "Ġharder": 6491,
      "ĠSol": 6492,
      "Ġtric": 6493,
      "Ġlifes": 6494,
      "Ġcav": 6495,
      "Ġrecipes": 6496,
      "Ġmenu": 6497,
      "Ġtables": 6498,
      "Ġancest": 6499,
      "Ġyes": 6500,
      "ĠLake": 6501,
      "ka": 6502,
      "ĠMount": 6503,
      "Ġcouldn": 6504,
      "Ġparticle": 6505,
      "ĠMexico": 6506,
      "Ġintric": 6507,
      "do": 6508,
      "esides": 6509,
      "ĠMal": 6510,
      "atric": 6511,
      "Ġphil": 6512,
      "ella": 6513,
      "Ġgrand": 6514,
      "ether": 6515,
      "Ġbacterial": 6516,
      "making": 6517,
      "rical": 6518,
      "Ġempt": 6519,
      "imental": 6520,
      "47": 6521,
      "CT": 6522,
      "ĠGr": 6523,
      "Ġleak": 6524,
      "Ġinfrastructure": 6525,
      "Don": 6526,
      "ĠLong": 6527,
      "agers": 6528,
      "Ġoxid": 6529,
      "othe": 6530,
      "Ġselecting": 6531,
      "appe": 6532,
      "Ġphotograp": 6533,
      "atus": 6534,
      "zym": 6535,
      "ĠHuman": 6536,
      "Ġtast": 6537,
      "Ġsmoke": 6538,
      "ðŁ": 6539,
      "Ġextent": 6540,
      "Ġtown": 6541,
      "arge": 6542,
      "Ġtape": 6543,
      "Ġfairly": 6544,
      "uel": 6545,
      "Ġgent": 6546,
      "Ġnecessarily": 6547,
      "ĠBlue": 6548,
      "Ġgluc": 6549,
      "ĠSometimes": 6550,
      "Ġwings": 6551,
      "Ġtherap": 6552,
      "Ġresistant": 6553,
      "ĠPen": 6554,
      "Ġnutritional": 6555,
      "Ġfertilizer": 6556,
      "Ġloop": 6557,
      "95": 6558,
      "ora": 6559,
      "kay": 6560,
      "Ġspectrum": 6561,
      "Ġspr": 6562,
      "atching": 6563,
      "ilation": 6564,
      "Ġyard": 6565,
      "Ġpolicies": 6566,
      "proof": 6567,
      "Ġgenerations": 6568,
      "Ġnoticed": 6569,
      "Ġrealize": 6570,
      "Ġdial": 6571,
      "Ġevolved": 6572,
      "Ġcrow": 6573,
      "Ġpossibility": 6574,
      "face": 6575,
      "Ġsubjects": 6576,
      "medi": 6577,
      "Ġpun": 6578,
      "Ġintensity": 6579,
      "Ġviruses": 6580,
      "Ġreef": 6581,
      "tical": 6582,
      "Ġenables": 6583,
      "Ġcompl": 6584,
      "Ġisland": 6585,
      "Ġhur": 6586,
      "Ġstroke": 6587,
      "pm": 6588,
      "Ġholding": 6589,
      "heet": 6590,
      "Ġderived": 6591,
      "DF": 6592,
      "Ġlogic": 6593,
      "inity": 6594,
      "efficient": 6595,
      "ĠLondon": 6596,
      "Ġclus": 6597,
      "Other": 6598,
      "icted": 6599,
      "Ġwilling": 6600,
      "Ġentertain": 6601,
      "urb": 6602,
      "Ġunderst": 6603,
      "Ġov": 6604,
      "Ġclar": 6605,
      "icity": 6606,
      "esterol": 6607,
      "Ġmood": 6608,
      "Ġtires": 6609,
      "amily": 6610,
      "Ġcontainers": 6611,
      "ĠStr": 6612,
      "aped": 6613,
      "Ġprecision": 6614,
      "Ġturb": 6615,
      "Ġrecommendations": 6616,
      "Ġhealing": 6617,
      "Ġclients": 6618,
      "Ġaluminum": 6619,
      "ĠDise": 6620,
      "BS": 6621,
      "Ġtick": 6622,
      "Ġproductivity": 6623,
      "Ġflexible": 6624,
      "Ġlies": 6625,
      "earing": 6626,
      "CS": 6627,
      "fast": 6628,
      "Ġreput": 6629,
      "coming": 6630,
      "Ġpink": 6631,
      "ounced": 6632,
      "Ġhidden": 6633,
      "ĠEnvironmental": 6634,
      "Ġeffectiveness": 6635,
      "AA": 6636,
      "ugs": 6637,
      "ĠWashington": 6638,
      "rub": 6639,
      "Ġapparent": 6640,
      "gal": 6641,
      "ĠFree": 6642,
      "Ġlimits": 6643,
      "Ġvibrant": 6644,
      "Ġknew": 6645,
      "ĠInternet": 6646,
      "ĠUV": 6647,
      "oons": 6648,
      "Read": 6649,
      "Ġserving": 6650,
      "RI": 6651,
      "Comm": 6652,
      "ĠMuseum": 6653,
      "Ġoverw": 6654,
      "ĠFurthermore": 6655,
      "Ġregist": 6656,
      "Ġresolution": 6657,
      "Lear": 6658,
      "Ġdive": 6659,
      "aired": 6660,
      "Ġyouth": 6661,
      "ĠWood": 6662,
      "Ġstorm": 6663,
      "Ġfacing": 6664,
      "Ġlinear": 6665,
      "Every": 6666,
      "Ġauto": 6667,
      "cou": 6668,
      "ĠFind": 6669,
      "Ġvet": 6670,
      "iology": 6671,
      "Ġvariation": 6672,
      "irty": 6673,
      "55": 6674,
      "ĠSpace": 6675,
      "Ġcoastal": 6676,
      "omfort": 6677,
      "Ġflexibility": 6678,
      "ources": 6679,
      "Ġpaid": 6680,
      "ĠTreat": 6681,
      "Ġfitness": 6682,
      "Ġplanted": 6683,
      "Ġfather": 6684,
      "Ġfinger": 6685,
      "Ġ2007": 6686,
      "xid": 6687,
      "Ġsac": 6688,
      "Ġhealthier": 6689,
      "Ġsexual": 6690,
      "igital": 6691,
      "Ġlived": 6692,
      "Che": 6693,
      "Ġextend": 6694,
      "Ġburning": 6695,
      "Ġbabies": 6696,
      "orge": 6697,
      "Ġintegrated": 6698,
      "Ġwidth": 6699,
      "During": 6700,
      "Ġunf": 6701,
      "Ġprevention": 6702,
      "Ġdigestive": 6703,
      "ĠHaw": 6704,
      "Ġnervous": 6705,
      "ĠPost": 6706,
      "Ġrecognized": 6707,
      "istant": 6708,
      "ĠAND": 6709,
      "ĠPress": 6710,
      "aj": 6711,
      "Ġvariables": 6712,
      "Ġdefine": 6713,
      "otal": 6714,
      "ĠAcad": 6715,
      "Ġeliminate": 6716,
      "Ġcompact": 6717,
      "agine": 6718,
      "Ġbuff": 6719,
      "Ġattacks": 6720,
      "Ġfav": 6721,
      "Ġconscious": 6722,
      "46": 6723,
      "Ġcalculate": 6724,
      "izers": 6725,
      "Ġcomplicated": 6726,
      "eli": 6727,
      "Ġmer": 6728,
      "ĠBr": 6729,
      "Ġgrid": 6730,
      "Ġpand": 6731,
      "Ġantibiotics": 6732,
      "Ġconversation": 6733,
      "Ġappreciate": 6734,
      "Ġcorresponding": 6735,
      "Ġscore": 6736,
      "Ġtransmit": 6737,
      "Ġnuclear": 6738,
      "fly": 6739,
      "dr": 6740,
      "ĠWestern": 6741,
      "Ġmature": 6742,
      "Ġrobots": 6743,
      "rape": 6744,
      "Ġinspect": 6745,
      "Ġwonderful": 6746,
      "PU": 6747,
      "Ġconvert": 6748,
      "Ġclub": 6749,
      "Ġgradually": 6750,
      "Ġincome": 6751,
      "Ġfunding": 6752,
      "unt": 6753,
      "ocket": 6754,
      "Ġpotatoes": 6755,
      "Ġaims": 6756,
      "alian": 6757,
      "Ġconvenient": 6758,
      "ĠDel": 6759,
      "hent": 6760,
      "Inst": 6761,
      "ometer": 6762,
      "Ġartist": 6763,
      "Where": 6764,
      "fra": 6765,
      "Ġgases": 6766,
      "Ġversatile": 6767,
      "ĠArch": 6768,
      "Ġbeef": 6769,
      "Ġconsumer": 6770,
      "osion": 6771,
      "Ġconclud": 6772,
      "soft": 6773,
      "Ġblend": 6774,
      "Ġmovie": 6775,
      "ĠTem": 6776,
      "PR": 6777,
      "Ġtele": 6778,
      "Ġkilled": 6779,
      "Ġabilities": 6780,
      "Ġcapital": 6781,
      "field": 6782,
      "Ġserver": 6783,
      "Ġsch": 6784,
      "ĠPlay": 6785,
      "Ġweap": 6786,
      "Ġcitiz": 6787,
      "Ġcompat": 6788,
      "Ġsilver": 6789,
      "Ġaccommod": 6790,
      "Ġvariations": 6791,
      "Ġgenome": 6792,
      "Ġcircumst": 6793,
      "Ġtraits": 6794,
      "ĠGroup": 6795,
      "Ġsuscept": 6796,
      "Ġsubsequ": 6797,
      "??": 6798,
      "Ġdifficulty": 6799,
      "Ġathlet": 6800,
      "uses": 6801,
      "rab": 6802,
      "edom": 6803,
      "ĠVe": 6804,
      "Ġassume": 6805,
      "Ġgeomet": 6806,
      "Ġsyndrome": 6807,
      "Ġexperiencing": 6808,
      "Ġpersist": 6809,
      "Ġclay": 6810,
      "Ġongoing": 6811,
      "31": 6812,
      "CD": 6813,
      "Does": 6814,
      "Ġacts": 6815,
      "ĠAmazon": 6816,
      "Ġarms": 6817,
      "Ġdrivers": 6818,
      "Ġtoys": 6819,
      "Ġgrain": 6820,
      "Ġdied": 6821,
      "Ġpresentation": 6822,
      "Ġmanaged": 6823,
      "ENT": 6824,
      "Ġson": 6825,
      "heets": 6826,
      "Ġbottle": 6827,
      "Ġseat": 6828,
      "Ġinteractive": 6829,
      "cript": 6830,
      "ĠInformation": 6831,
      "Also": 6832,
      "Ġpit": 6833,
      "Ġheads": 6834,
      "eles": 6835,
      "Ġdescribes": 6836,
      "ints": 6837,
      "Ġfrozen": 6838,
      "Ġnarrow": 6839,
      "Ġwaiting": 6840,
      "Ġcomments": 6841,
      "ĠTry": 6842,
      "Ġdealing": 6843,
      "utch": 6844,
      "ĠPract": 6845,
      "Ġpartner": 6846,
      "certain": 6847,
      "Ġnearby": 6848,
      "Ġpackaging": 6849,
      "ĠRNA": 6850,
      "Ġparticipate": 6851,
      "ĠMedical": 6852,
      "Ġdurable": 6853,
      "Ġadequate": 6854,
      "Ġsatell": 6855,
      "Ġrobust": 6856,
      "Ġpel": 6857,
      "ĠOh": 6858,
      "ĠMat": 6859,
      "Ġrib": 6860,
      "Ġgal": 6861,
      "Ġdecline": 6862,
      "Ġleader": 6863,
      "Ġhybrid": 6864,
      "Ġimmediate": 6865,
      "ĠLaw": 6866,
      "hemistry": 6867,
      "Ġcircle": 6868,
      "Ġpairs": 6869,
      "Ġdrops": 6870,
      "Ġjack": 6871,
      "Ġrespectively": 6872,
      "terior": 6873,
      "Ġwatering": 6874,
      "Ġentry": 6875,
      "Ġfocuses": 6876,
      "Ġappoint": 6877,
      "Ġbiodiversity": 6878,
      "Ġpermanent": 6879,
      "ĠEqu": 6880,
      "apping": 6881,
      "Ġpeak": 6882,
      "Ġrect": 6883,
      "ikes": 6884,
      "itness": 6885,
      "Â·": 6886,
      "Ġrespiratory": 6887,
      "Ġmammals": 6888,
      "Ġaccomp": 6889,
      "bage": 6890,
      "ĠOnly": 6891,
      "Ġduration": 6892,
      "Ġspeaking": 6893,
      "Ġoccurred": 6894,
      "exp": 6895,
      "Ġflash": 6896,
      "Col": 6897,
      "OW": 6898,
      "uning": 6899,
      "Ġcompress": 6900,
      "amic": 6901,
      "ĠCentral": 6902,
      "lo": 6903,
      "eping": 6904,
      "net": 6905,
      "Ġcolumn": 6906,
      "osaur": 6907,
      "Ġsections": 6908,
      "oto": 6909,
      "Ġbreaking": 6910,
      "Ġfederal": 6911,
      "!\"": 6912,
      "FA": 6913,
      "Ġprinter": 6914,
      "Ġbugs": 6915,
      "Ġnuts": 6916,
      "Share": 6917,
      "atively": 6918,
      "mor": 6919,
      "ĠSpan": 6920,
      "ĠRad": 6921,
      "Ġintense": 6922,
      "Ġpreferred": 6923,
      "Ġcontem": 6924,
      "Ġforming": 6925,
      "Ġcalm": 6926,
      "Ġdemonstrate": 6927,
      "Ġcotton": 6928,
      "Ġfunctionality": 6929,
      "scale": 6930,
      "ini": 6931,
      "ourse": 6932,
      "Ġterrit": 6933,
      "opes": 6934,
      "ĠPublic": 6935,
      "ĠJournal": 6936,
      "ĠHouse": 6937,
      "ona": 6938,
      "Ġsteam": 6939,
      "Ġcaught": 6940,
      "Ġsupposed": 6941,
      "van": 6942,
      "Ġkg": 6943,
      "Ġoils": 6944,
      "bohyd": 6945,
      "ĠSil": 6946,
      "gu": 6947,
      "Ġsan": 6948,
      "%.": 6949,
      "Ġdietary": 6950,
      "Ġdetermining": 6951,
      "Ġsuffering": 6952,
      "erior": 6953,
      "Ġstrip": 6954,
      "ĠUnderstanding": 6955,
      "Ġstreet": 6956,
      "usiness": 6957,
      "ĠMoreover": 6958,
      "Ġcandid": 6959,
      ",âĢĿ": 6960,
      "pat": 6961,
      "Ġprocessed": 6962,
      "Ġdurability": 6963,
      "Ġtough": 6964,
      "berg": 6965,
      "Ġpestic": 6966,
      "step": 6967,
      "Ġprofile": 6968,
      "reens": 6969,
      "Ġcolleagues": 6970,
      "Ġpossibilities": 6971,
      "Ġneur": 6972,
      "Ġchest": 6973,
      "Ġstated": 6974,
      "Ġclient": 6975,
      "Ġhypothes": 6976,
      "ĠShould": 6977,
      "Ġcurriculum": 6978,
      "ĠProfessor": 6979,
      "Ġdoors": 6980,
      "Ġshorter": 6981,
      "Ġsodium": 6982,
      "Ġdirector": 6983,
      "Ġdiscomfort": 6984,
      "ĠFigure": 6985,
      "ĠPet": 6986,
      "tery": 6987,
      "Ġcategory": 6988,
      "Ġcomputing": 6989,
      "ĠAustralian": 6990,
      "ĠÃ": 6991,
      "ading": 6992,
      "ague": 6993,
      "Ġ2022": 6994,
      "ĠFace": 6995,
      "Ġunknown": 6996,
      "Ġfant": 6997,
      "tra": 6998,
      "ritis": 6999,
      "Ġprotecting": 7000,
      "Ġviews": 7001,
      "Ġdoctors": 7002,
      "ĠBest": 7003,
      "RNA": 7004,
      "Ġdefect": 7005,
      "Ġliterature": 7006,
      "Ġow": 7007,
      "Ġimplementation": 7008,
      "Ġtheore": 7009,
      "ĠPal": 7010,
      "ĠNAS": 7011,
      "Ġlandscap": 7012,
      "lessly": 7013,
      "Ġjoints": 7014,
      "Ġdense": 7015,
      "Ġframework": 7016,
      "Ġshall": 7017,
      "Ġpilot": 7018,
      "Ġourselves": 7019,
      "Ġshowc": 7020,
      "Ġfocusing": 7021,
      "efits": 7022,
      "Ġrubber": 7023,
      "ĠGermany": 7024,
      "ocation": 7025,
      "Ġvulnerable": 7026,
      "Ġgentle": 7027,
      "state": 7028,
      "Ġbrands": 7029,
      "Ġ**": 7030,
      "quit": 7031,
      "ĠMot": 7032,
      "Ġevaluate": 7033,
      "green": 7034,
      "Ġtons": 7035,
      "Ġshock": 7036,
      "Ġveterinarian": 7037,
      "aterials": 7038,
      "ĠNews": 7039,
      "Ġrepeated": 7040,
      "Ġcham": 7041,
      "ĠPot": 7042,
      "ĠSuch": 7043,
      "Ġstems": 7044,
      "Ġobserve": 7045,
      "Ġthoroughly": 7046,
      "ulture": 7047,
      "Ġdeer": 7048,
      "ĠForm": 7049,
      "Because": 7050,
      "gien": 7051,
      "PC": 7052,
      "Ġrod": 7053,
      "Ġlargely": 7054,
      "Ġ75": 7055,
      "Ġcultures": 7056,
      "ĠSecond": 7057,
      "Ġlifespan": 7058,
      "cycl": 7059,
      "IR": 7060,
      "ushing": 7061,
      "mentation": 7062,
      "ĠAT": 7063,
      "Ġexistence": 7064,
      "heric": 7065,
      "adian": 7066,
      "wo": 7067,
      "Ġcholesterol": 7068,
      "Car": 7069,
      "Ġidentifying": 7070,
      "Ġvector": 7071,
      "Ġbiom": 7072,
      "inent": 7073,
      "nger": 7074,
      "zyme": 7075,
      "ĠPan": 7076,
      "Ġnavigate": 7077,
      "OM": 7078,
      "Ġtells": 7079,
      "Ġpou": 7080,
      "Ġevolutionary": 7081,
      "ĠThose": 7082,
      "Ġkm": 7083,
      "Ġherbs": 7084,
      "advant": 7085,
      "ĠAtt": 7086,
      "hav": 7087,
      "Ġ196": 7088,
      "ĠSuper": 7089,
      "luding": 7090,
      "Ġrecording": 7091,
      "Ġpharm": 7092,
      "Ġrevealed": 7093,
      "Ġassembly": 7094,
      "Ġ32": 7095,
      "uma": 7096,
      "Ġbringing": 7097,
      "Ġsynthetic": 7098,
      "Ġproven": 7099,
      "rument": 7100,
      "Ġgoods": 7101,
      ".'": 7102,
      "Ġsched": 7103,
      "Ġdisrupt": 7104,
      "mal": 7105,
      "ĠBig": 7106,
      "Ġtack": 7107,
      "Ġinstrum": 7108,
      "ĠRegular": 7109,
      "forcement": 7110,
      "Ġaffecting": 7111,
      "mented": 7112,
      "Ġintest": 7113,
      "Ġeco": 7114,
      "ĠIll": 7115,
      "Ġlip": 7116,
      "Ġaggressive": 7117,
      "ĠAR": 7118,
      "such": 7119,
      "Ġintroduce": 7120,
      "reating": 7121,
      "althy": 7122,
      "zymes": 7123,
      "Ġexamine": 7124,
      "ceans": 7125,
      "Ġmitig": 7126,
      "Ġreceiving": 7127,
      "Ġnor": 7128,
      "night": 7129,
      "Ġadvoc": 7130,
      "Ġholid": 7131,
      "Ġfibers": 7132,
      "Ġidentity": 7133,
      "Ġleadership": 7134,
      "Ġcater": 7135,
      "ĠZe": 7136,
      "icit": 7137,
      "Ġsupplements": 7138,
      "CE": 7139,
      "ĠFrance": 7140,
      "Ġexists": 7141,
      "type": 7142,
      "ĠEss": 7143,
      "aneously": 7144,
      "Just": 7145,
      "Ġaffordable": 7146,
      "ĠMedicine": 7147,
      "Ġclaims": 7148,
      "Ġproof": 7149,
      "utive": 7150,
      "Ġjuice": 7151,
      "ago": 7152,
      "Ġgate": 7153,
      "SS": 7154,
      "Ġshouldn": 7155,
      "working": 7156,
      "Ġprove": 7157,
      "Ġgerm": 7158,
      "Ġformal": 7159,
      "Ġprofit": 7160,
      "ĠClimate": 7161,
      "Ġreaders": 7162,
      "Ġbrake": 7163,
      "Ġgreatest": 7164,
      "Ġfing": 7165,
      "Ġinvent": 7166,
      "Ġfilters": 7167,
      "49": 7168,
      "Ġmere": 7169,
      "Ġwheels": 7170,
      "Ġengagement": 7171,
      "Ġexpansion": 7172,
      "Ġbought": 7173,
      "Ġanalyze": 7174,
      "ĠMach": 7175,
      "Ġvan": 7176,
      "Ġexplanation": 7177,
      "shaped": 7178,
      "Ġmouse": 7179,
      "iger": 7180,
      "Ġanalog": 7181,
      "elry": 7182,
      "Ġinfest": 7183,
      "Ġcompetitive": 7184,
      "ĠSocial": 7185,
      "Ġcomprom": 7186,
      "Ġavailability": 7187,
      "ĠSam": 7188,
      "otype": 7189,
      "Ġthickness": 7190,
      "ĠFinally": 7191,
      "anger": 7192,
      "Ġhyper": 7193,
      "orrect": 7194,
      "Ġperce": 7195,
      "ĠFalse": 7196,
      "Ġgap": 7197,
      "Ġroles": 7198,
      "Ġquantity": 7199,
      "ĠAdv": 7200,
      "ude": 7201,
      "Ġoptical": 7202,
      "astics": 7203,
      "ican": 7204,
      "Ġ150": 7205,
      "ĠCell": 7206,
      "Ġagent": 7207,
      "Ġlistening": 7208,
      "omin": 7209,
      "ĠProcess": 7210,
      "hered": 7211,
      "rays": 7212,
      "Ġcrew": 7213,
      "Ġpriorit": 7214,
      "Ġconsideration": 7215,
      "Which": 7216,
      "Ġusual": 7217,
      "Ġcub": 7218,
      "Ġglucose": 7219,
      "OD": 7220,
      "lectric": 7221,
      "Ġpregnant": 7222,
      "42": 7223,
      "Ġsalmon": 7224,
      "ivest": 7225,
      "riction": 7226,
      "ael": 7227,
      "pled": 7228,
      "Ġprotocol": 7229,
      "Ġbreaks": 7230,
      "About": 7231,
      "ĠRight": 7232,
      "Ġneighb": 7233,
      "Ġunusual": 7234,
      "Ġobesity": 7235,
      "ioxid": 7236,
      "Ġevaluation": 7237,
      "asm": 7238,
      "Ġsoci": 7239,
      "Ġregardless": 7240,
      "AG": 7241,
      "Ġtreating": 7242,
      "Ġphilos": 7243,
      "()": 7244,
      "Ġsnake": 7245,
      "Even": 7246,
      "Ġaward": 7247,
      "Ġdried": 7248,
      "rem": 7249,
      "oust": 7250,
      "udd": 7251,
      "ĠProv": 7252,
      "lder": 7253,
      "Ġmirror": 7254,
      "Ġriding": 7255,
      "Understanding": 7256,
      "Ġinvolving": 7257,
      "Ġpropag": 7258,
      "Ġstimul": 7259,
      "ĠPM": 7260,
      "Ġkidney": 7261,
      "ogether": 7262,
      "izza": 7263,
      "ĠMa": 7264,
      "Ġcrack": 7265,
      "Ġfeather": 7266,
      "ooked": 7267,
      "Ġcircumstances": 7268,
      "made": 7269,
      "Ġdomain": 7270,
      "Ġhazard": 7271,
      "Ġessentially": 7272,
      "ĠâĪ": 7273,
      "Ġrear": 7274,
      "Ġwast": 7275,
      "Ġaccurately": 7276,
      "inch": 7277,
      "ingly": 7278,
      "Ġcomposed": 7279,
      "Ġsubs": 7280,
      "Ġven": 7281,
      "Ġabsolutely": 7282,
      "Ġcharacterized": 7283,
      "Ġfisher": 7284,
      "Ġempty": 7285,
      "Ġrestaurant": 7286,
      "Ġestimate": 7287,
      "rosion": 7288,
      "Ġtheme": 7289,
      "Ġcategories": 7290,
      "Ġinterests": 7291,
      "ĠQuestions": 7292,
      "âĪĴ": 7293,
      "Ġcharged": 7294,
      "Ġdispl": 7295,
      "oids": 7296,
      "Ġbrows": 7297,
      "Ġpersonality": 7298,
      "Ġresidents": 7299,
      "ĠWindows": 7300,
      "Ġenhancing": 7301,
      "Ġboxes": 7302,
      "Ġinvention": 7303,
      "Ġbulbs": 7304,
      "Ġjoy": 7305,
      "osquit": 7306,
      "Ġvegan": 7307,
      "flies": 7308,
      "Ġdecay": 7309,
      "Ġidentification": 7310,
      "UT": 7311,
      "Ġid": 7312,
      "Ġgarlic": 7313,
      "ĠMor": 7314,
      "grade": 7315,
      "Sim": 7316,
      "Ġsulf": 7317,
      "trans": 7318,
      "Ġdemonstrated": 7319,
      "Ġincorporating": 7320,
      "Ġunable": 7321,
      "etal": 7322,
      "Ġreb": 7323,
      "ĠConf": 7324,
      "gical": 7325,
      "Ġdies": 7326,
      "thal": 7327,
      "Ġreprodu": 7328,
      "Ġcomplexity": 7329,
      "Ġdocuments": 7330,
      "Ġdissol": 7331,
      "ĠDogs": 7332,
      "Ġequipped": 7333,
      "Ġinitially": 7334,
      "Ġstead": 7335,
      "Ġuniform": 7336,
      "Of": 7337,
      "Ġspark": 7338,
      "Ġcovering": 7339,
      "ctu": 7340,
      "osc": 7341,
      "Ġchannels": 7342,
      "Ġ`": 7343,
      "Ġlaunch": 7344,
      "Ġagents": 7345,
      "Ġencounter": 7346,
      "Co": 7347,
      "obe": 7348,
      "Ġdetected": 7349,
      "mble": 7350,
      "Ġsoph": 7351,
      "Ġcake": 7352,
      "Water": 7353,
      "ĠUSA": 7354,
      "Ġrecover": 7355,
      "Ġintegr": 7356,
      "ref": 7357,
      "ĠAtlantic": 7358,
      "etime": 7359,
      "Ġmarks": 7360,
      "pection": 7361,
      "Ġunderstood": 7362,
      "Ġsaving": 7363,
      "Ġprovider": 7364,
      "lock": 7365,
      "Ġcarrying": 7366,
      "Ġbonds": 7367,
      "ĠPlace": 7368,
      "03": 7369,
      "Ġlux": 7370,
      "Ġtrad": 7371,
      "Ġranging": 7372,
      "ĠCoun": 7373,
      "Ġgiant": 7374,
      "ymph": 7375,
      "Ġmini": 7376,
      "while": 7377,
      "Ġculinary": 7378,
      "Ġdough": 7379,
      "Ġblank": 7380,
      "Ġmodule": 7381,
      "ĠFollow": 7382,
      "UR": 7383,
      "Ġrough": 7384,
      "Ġ2006": 7385,
      "Ġgently": 7386,
      "rying": 7387,
      "Ġcurve": 7388,
      "Ġreaching": 7389,
      "Ġcow": 7390,
      "Ġsle": 7391,
      "Ġdiscipl": 7392,
      "ĠThanks": 7393,
      "Ġincorporate": 7394,
      "ĠProper": 7395,
      "ivestock": 7396,
      "Ġattractive": 7397,
      "Ġmoon": 7398,
      "SC": 7399,
      "Ġtension": 7400,
      "Ġexcited": 7401,
      "âģ": 7402,
      "Ġpipes": 7403,
      "ĠDC": 7404,
      "âĢľ": 7405,
      "ĠAvoid": 7406,
      "Ġinfect": 7407,
      "ya": 7408,
      "Ġtal": 7409,
      "Ġhimself": 7410,
      "},": 7411,
      "Ġexpressed": 7412,
      "ĠVir": 7413,
      "OC": 7414,
      "Have": 7415,
      "Ġ400": 7416,
      "Ġmixing": 7417,
      "Ġpackage": 7418,
      "Ġrelief": 7419,
      "Ġgrains": 7420,
      "Ġeleph": 7421,
      "ĠPhotos": 7422,
      "itage": 7423,
      "Ġmask": 7424,
      "Ġexclus": 7425,
      "Ġtag": 7426,
      "Ġsensitivity": 7427,
      "Ġdoubt": 7428,
      "Ġoutcome": 7429,
      "Ġerrors": 7430,
      "Ġbeet": 7431,
      "Ġtruck": 7432,
      "02": 7433,
      "Ġforeign": 7434,
      "Ġcoral": 7435,
      "Ġingredient": 7436,
      "Ġcrystal": 7437,
      "Ġwires": 7438,
      "ĠAgricult": 7439,
      "elly": 7440,
      "roductive": 7441,
      "Ġfract": 7442,
      "Ġspeeds": 7443,
      "ĠMult": 7444,
      "ĠEnd": 7445,
      "Pr": 7446,
      "Ġarchitecture": 7447,
      "overnment": 7448,
      "pie": 7449,
      "ĠUN": 7450,
      "Sm": 7451,
      "Ġpositions": 7452,
      "action": 7453,
      "Ġmessages": 7454,
      "Ġdriven": 7455,
      "Ġfalls": 7456,
      "Ġsoils": 7457,
      "ĠApple": 7458,
      "Ġdirections": 7459,
      "Ġmine": 7460,
      "Ġsmoking": 7461,
      "Ġtoile": 7462,
      "Ġalgae": 7463,
      "Ġgift": 7464,
      "Ġappeal": 7465,
      "ĊĠĠĠĠ": 7466,
      "Ġroute": 7467,
      "ĠMass": 7468,
      "Ġpy": 7469,
      "thritis": 7470,
      "ĠBack": 7471,
      "Ġyounger": 7472,
      "Ġperforming": 7473,
      "Ġbarrier": 7474,
      "Ġbits": 7475,
      "Gen": 7476,
      "Ġstraw": 7477,
      "ĠWord": 7478,
      "Red": 7479,
      "Ġphenomenon": 7480,
      "May": 7481,
      "Ġgray": 7482,
      "Go": 7483,
      "ĠID": 7484,
      "Ġdelicate": 7485,
      "ili": 7486,
      "Ġglasses": 7487,
      "lig": 7488,
      "Ġradi": 7489,
      "assium": 7490,
      "Well": 7491,
      "Ġneighbor": 7492,
      "rained": 7493,
      "Ġlift": 7494,
      "Ġecological": 7495,
      "Ġcalculated": 7496,
      "kers": 7497,
      "Ġ2005": 7498,
      "Ġobservations": 7499,
      "Ġworn": 7500,
      "aft": 7501,
      "Ġamino": 7502,
      "ĠMo": 7503,
      "Ġthrow": 7504,
      "Ġdimensions": 7505,
      "ĠGener": 7506,
      "ruit": 7507,
      "oted": 7508,
      "Ġcellular": 7509,
      "onia": 7510,
      "Ġexploration": 7511,
      "Ġreviews": 7512,
      "Ġvill": 7513,
      "Ġselling": 7514,
      "Ġdrainage": 7515,
      "Ġdanger": 7516,
      "Ġauthent": 7517,
      "uty": 7518,
      "Ġsomewhat": 7519,
      "ĠCur": 7520,
      "gent": 7521,
      "06": 7522,
      "plate": 7523,
      "Ġbranch": 7524,
      "ĠDraw": 7525,
      "ults": 7526,
      "plete": 7527,
      "forest": 7528,
      "Ġrising": 7529,
      "Ġfacility": 7530,
      "08": 7531,
      "ĠSimilar": 7532,
      "Ġspending": 7533,
      "ĠTrue": 7534,
      "sis": 7535,
      "Ġimplications": 7536,
      "Ġexhibit": 7537,
      "Ġwestern": 7538,
      "Make": 7539,
      "Ġtreats": 7540,
      "Ġpreval": 7541,
      "berries": 7542,
      "Ġca": 7543,
      "Ġdisappe": 7544,
      "Ġcrust": 7545,
      "Ġvolcan": 7546,
      "ĠBur": 7547,
      "Ġdrought": 7548,
      "Ġuniversity": 7549,
      "Ġfatty": 7550,
      "Ġwiring": 7551,
      "Ġfalse": 7552,
      "Ġsplit": 7553,
      "Ġrivers": 7554,
      "esium": 7555,
      "Ġvaries": 7556,
      "Ġquiet": 7557,
      "Ġpopularity": 7558,
      "Ġlaun": 7559,
      "Ġcombine": 7560,
      "Ġbeach": 7561,
      "Ġsimult": 7562,
      "pread": 7563,
      "ĠDavid": 7564,
      "Ġleather": 7565,
      "ĠJe": 7566,
      "ĠNASA": 7567,
      "Ġcement": 7568,
      "ĠSafety": 7569,
      "ĠTop": 7570,
      "omas": 7571,
      "ĠHy": 7572,
      "Ġvisitors": 7573,
      "utrition": 7574,
      "Ġsole": 7575,
      "Ġfunctioning": 7576,
      "Ġrarely": 7577,
      "Ġpill": 7578,
      "rian": 7579,
      "Ġimmun": 7580,
      "Per": 7581,
      "bow": 7582,
      "this": 7583,
      "ĠWildlife": 7584,
      "Ġdistributed": 7585,
      "Ġmodified": 7586,
      "ĠConservation": 7587,
      "Ġallergies": 7588,
      "Ġbol": 7589,
      "ville": 7590,
      "Ġboundaries": 7591,
      "IF": 7592,
      "ãĢ": 7593,
      "Ġcompens": 7594,
      "Ġconversion": 7595,
      "ĠType": 7596,
      "Ġincredibly": 7597,
      "Ġsail": 7598,
      "Ġconfident": 7599,
      "Ġposts": 7600,
      "Ġbuck": 7601,
      "Ġbub": 7602,
      "Ġchips": 7603,
      "ĠGeneral": 7604,
      "Ġprevents": 7605,
      "Ġmuse": 7606,
      "oli": 7607,
      "ww": 7608,
      "cknow": 7609,
      "Ġincredible": 7610,
      "icular": 7611,
      "ĠMil": 7612,
      "power": 7613,
      "oving": 7614,
      "Ġpassing": 7615,
      "ĠMem": 7616,
      "ĠFish": 7617,
      "ĠChange": 7618,
      "Ġinstrument": 7619,
      "Ġprobability": 7620,
      "Ġpond": 7621,
      "Ġcontributing": 7622,
      "43": 7623,
      "through": 7624,
      "Ġanimation": 7625,
      "Ġcontrolling": 7626,
      "Ġtrial": 7627,
      "ersonal": 7628,
      "Ġcenturies": 7629,
      "EP": 7630,
      "Ġalternatives": 7631,
      "Ġletters": 7632,
      "Ġsurge": 7633,
      "Ġcoverage": 7634,
      "Ġorient": 7635,
      "Ġoutdoors": 7636,
      "Ġore": 7637,
      "ĠBal": 7638,
      "ĠCouncil": 7639,
      "Ġneural": 7640,
      "Ġcombat": 7641,
      "Ġdrawn": 7642,
      "Ġembry": 7643,
      "herent": 7644,
      "ools": 7645,
      "igue": 7646,
      "Ġremarkable": 7647,
      "Ġprescrib": 7648,
      "taining": 7649,
      "Ġguard": 7650,
      "Ġprone": 7651,
      "Ġhormone": 7652,
      "war": 7653,
      "ega": 7654,
      "rane": 7655,
      "Ġlosing": 7656,
      "Ġtomatoes": 7657,
      "owns": 7658,
      "Ġdesire": 7659,
      "Ġprinted": 7660,
      "Ġscientist": 7661,
      "Ġintegration": 7662,
      "Ġreaches": 7663,
      "ĠBook": 7664,
      "Ġera": 7665,
      "Ġdecade": 7666,
      "Ġresc": 7667,
      "adder": 7668,
      "Ġovercome": 7669,
      "Ġgenerator": 7670,
      "Ġdil": 7671,
      "isl": 7672,
      "Ġwider": 7673,
      "Ġcharacteristic": 7674,
      "Ġplates": 7675,
      "09": 7676,
      "Ġmul": 7677,
      "Ġregional": 7678,
      "velength": 7679,
      "Ġorganized": 7680,
      "Ġblade": 7681,
      "Ġwarning": 7682,
      "Ġthreats": 7683,
      "erts": 7684,
      "sized": 7685,
      "idespread": 7686,
      "auc": 7687,
      "etch": 7688,
      "Ġcarbohyd": 7689,
      "Ġdiamond": 7690,
      "ounce": 7691,
      "ĠSn": 7692,
      "],": 7693,
      "oa": 7694,
      "Ġinver": 7695,
      "Ġ31": 7696,
      "Ġorganism": 7697,
      "Ġions": 7698,
      "ĠSciences": 7699,
      "Ġloud": 7700,
      "Ġpersonalized": 7701,
      "Ġtracking": 7702,
      "Any": 7703,
      "Ġoriginally": 7704,
      "Fig": 7705,
      "ĠCy": 7706,
      "everal": 7707,
      "Ġepis": 7708,
      "Ġgained": 7709,
      "rapeut": 7710,
      "Ġfrust": 7711,
      "Ġpip": 7712,
      "eting": 7713,
      "Ġintricate": 7714,
      "ĠTO": 7715,
      "arming": 7716,
      "ĠIP": 7717,
      "Ġtargets": 7718,
      "Ġwax": 7719,
      "asters": 7720,
      "alls": 7721,
      "Ġking": 7722,
      "Ġexperimental": 7723,
      "Ġfilling": 7724,
      "Ġgast": 7725,
      "izz": 7726,
      "sor": 7727,
      "owered": 7728,
      "Ġaddressing": 7729,
      "iking": 7730,
      "LA": 7731,
      "ĠMiss": 7732,
      "Ġpreserve": 7733,
      "Ġpreparing": 7734,
      "cm": 7735,
      "Ġopened": 7736,
      "Ġimplemented": 7737,
      "Ġtiming": 7738,
      "Ġendangered": 7739,
      "Ġcomplications": 7740,
      "ports": 7741,
      "urp": 7742,
      "Ġfreedom": 7743,
      "41": 7744,
      "ĠSing": 7745,
      "asant": 7746,
      "Ġobjective": 7747,
      "Â®": 7748,
      "Ġoverwhel": 7749,
      "Ġfats": 7750,
      "Ġethical": 7751,
      "Ġenabling": 7752,
      "Ġwing": 7753,
      "Am": 7754,
      "ĠNote": 7755,
      "ogenic": 7756,
      "Ġgum": 7757,
      "rous": 7758,
      "Ġrepresented": 7759,
      "Ġelectronics": 7760,
      "ocr": 7761,
      "¿½": 7762,
      "Ġunex": 7763,
      "othing": 7764,
      "Wor": 7765,
      "ĠChoose": 7766,
      "list": 7767,
      "pes": 7768,
      "ï¿½": 7769,
      "lete": 7770,
      "Ġretail": 7771,
      "Ġenerg": 7772,
      "def": 7773,
      "born": 7774,
      "edge": 7775,
      "Ġmarked": 7776,
      "reated": 7777,
      "07": 7778,
      "Ġsomewhere": 7779,
      "Ġescape": 7780,
      "Ġadventure": 7781,
      "Ġdiffer": 7782,
      "Ġrelation": 7783,
      "ĠKey": 7784,
      "Ġantioxid": 7785,
      "Ġengineers": 7786,
      "rons": 7787,
      "Ġguy": 7788,
      "ĠHol": 7789,
      "icul": 7790,
      "Ġworkshop": 7791,
      "Ġchip": 7792,
      "agen": 7793,
      "Ġtone": 7794,
      "Ġcomplement": 7795,
      "Ġapps": 7796,
      "Ġinsulin": 7797,
      "encing": 7798,
      "85": 7799,
      "tles": 7800,
      "Ġdepartment": 7801,
      "ĠConst": 7802,
      "ĠMill": 7803,
      "Ġlimitations": 7804,
      "ĠIndust": 7805,
      "ĠSym": 7806,
      "Ġinspired": 7807,
      "Ġvarying": 7808,
      "Ġdesk": 7809,
      "Ġhygien": 7810,
      "Ġenhanced": 7811,
      "hea": 7812,
      "roat": 7813,
      "Ġcabin": 7814,
      "ideo": 7815,
      "Ġsale": 7816,
      "ĠMr": 7817,
      "Ġnone": 7818,
      "Ġrotation": 7819,
      "Ġsleeping": 7820,
      "ĠImp": 7821,
      "Ġbeam": 7822,
      "egin": 7823,
      "Ġphr": 7824,
      "Ġlarv": 7825,
      "Ġfarms": 7826,
      "Ġchildhood": 7827,
      "Ġmatrix": 7828,
      "ynthesis": 7829,
      "Ġsubstrate": 7830,
      "Ġdecreased": 7831,
      "owners": 7832,
      "Ġmicrow": 7833,
      "Ġcorpor": 7834,
      "04": 7835,
      "ĠList": 7836,
      "Ġrust": 7837,
      "imensional": 7838,
      "ĠHyd": 7839,
      "anguage": 7840,
      "ĠDifferent": 7841,
      "ĠFin": 7842,
      "Ġtract": 7843,
      "Ġwebsites": 7844,
      "Ġ2023": 7845,
      "Ġbare": 7846,
      "Ġremind": 7847,
      "Ġtotally": 7848,
      "Com": 7849,
      "sey": 7850,
      "ĠAud": 7851,
      "Ġgrad": 7852,
      "Ġscript": 7853,
      "Ġmyth": 7854,
      "sters": 7855,
      "inate": 7856,
      "amination": 7857,
      "ptic": 7858,
      "riting": 7859,
      "Ġrose": 7860,
      "Ġsurprising": 7861,
      "Ġembod": 7862,
      "ĠEngineering": 7863,
      "Ġcirculation": 7864,
      "Ġchair": 7865,
      "ria": 7866,
      "Ġinsight": 7867,
      "Ġsheets": 7868,
      "Ġmush": 7869,
      "ĠPlants": 7870,
      "Ġhal": 7871,
      "ĠCommun": 7872,
      "Ġwine": 7873,
      "itamin": 7874,
      "Ġgirls": 7875,
      "Ġconsumed": 7876,
      "ĠCarol": 7877,
      "enger": 7878,
      "MP": 7879,
      "cture": 7880,
      "Aut": 7881,
      "Ġindeed": 7882,
      "icians": 7883,
      "heat": 7884,
      "Ġheater": 7885,
      "Dis": 7886,
      "olph": 7887,
      "Ġstrict": 7888,
      "Ġadvis": 7889,
      "Ġguys": 7890,
      "Ġcattle": 7891,
      "Ġtransplant": 7892,
      "Ġoxide": 7893,
      "Ġenzymes": 7894,
      "ittle": 7895,
      "Ġwidespread": 7896,
      "Ġrh": 7897,
      "Ġkin": 7898,
      "ĠNor": 7899,
      "ĠDan": 7900,
      "ĠCH": 7901,
      "Tra": 7902,
      "Ġmanif": 7903,
      "ĠâĢĺ": 7904,
      "Ġlanguages": 7905,
      "Ġjewelry": 7906,
      "Ġintervention": 7907,
      "Ġhouses": 7908,
      "ĠAp": 7909,
      "Ġlake": 7910,
      "Ġediting": 7911,
      "Ġfuels": 7912,
      "ĠTable": 7913,
      "Ġalk": 7914,
      "Ġenzyme": 7915,
      "Ġlighter": 7916,
      "duction": 7917,
      "Ġspiritual": 7918,
      "Ġcenters": 7919,
      "Ġflows": 7920,
      "Ġhorizontal": 7921,
      "Ġpresents": 7922,
      "Ġfalling": 7923,
      "Ġfif": 7924,
      "ĠMaybe": 7925,
      "ĠServices": 7926,
      "anned": 7927,
      "Ġdependent": 7928,
      "Ġconvey": 7929,
      "Ġships": 7930,
      "riday": 7931,
      "Ġchecking": 7932,
      "effective": 7933,
      "Ġaids": 7934,
      "ĠLou": 7935,
      "Ġastron": 7936,
      "Ġsuperior": 7937,
      "Ġdiagnosed": 7938,
      "Ġoccurring": 7939,
      "ki": 7940,
      "ĠChristmas": 7941,
      "afe": 7942,
      "aters": 7943,
      "Ġadj": 7944,
      "ĠLeg": 7945,
      "Ġstretch": 7946,
      "Ġheavily": 7947,
      "ĠMary": 7948,
      "Ġachieving": 7949,
      "Ġimaging": 7950,
      "Ġregister": 7951,
      "Ġpapers": 7952,
      "Ġcuts": 7953,
      "even": 7954,
      "rium": 7955,
      "ovascular": 7956,
      "Ġbusy": 7957,
      "Expl": 7958,
      "awn": 7959,
      "Ġaxis": 7960,
      "Ġtender": 7961,
      "Ġille": 7962,
      "oral": 7963,
      "Ġstones": 7964,
      "ĠMag": 7965,
      "CA": 7966,
      "Ġpod": 7967,
      "Ġdys": 7968,
      "Ġoceans": 7969,
      "Ġduct": 7970,
      "erenn": 7971,
      "Spe": 7972,
      "Ġbears": 7973,
      "Ġreligious": 7974,
      "itudes": 7975,
      "Ġlock": 7976,
      "Ġreverse": 7977,
      "inf": 7978,
      "ĠMiddle": 7979,
      "ĠReview": 7980,
      "tee": 7981,
      "ĠÂ·": 7982,
      "Ġverte": 7983,
      "Ġstuck": 7984,
      "56": 7985,
      "rey": 7986,
      "stein": 7987,
      "zil": 7988,
      "Ġregulation": 7989,
      "Ġdegrad": 7990,
      "Ġtrib": 7991,
      "Ġstabil": 7992,
      "osaurs": 7993,
      "ĠCut": 7994,
      "Ġhonest": 7995,
      "Ġvegetation": 7996,
      "Ġcheaper": 7997,
      "Ġdose": 7998,
      "Ġcorrel": 7999,
      "ĠAL": 8000,
      "Ġtechnological": 8001,
      "Ġlungs": 8002,
      "Ġcash": 8003,
      "Ġwhenever": 8004,
      "Ġintelligent": 8005,
      "Ġpurple": 8006,
      "Ġfever": 8007,
      "Ġupdated": 8008,
      "Ġrepairs": 8009,
      "igenous": 8010,
      "Ġterminal": 8011,
      "Ġpandemic": 8012,
      "aren": 8013,
      "Like": 8014,
      "Ġpaying": 8015,
      "engers": 8016,
      "ĠAcc": 8017,
      "Ġconnecting": 8018,
      "RA": 8019,
      "Ġanten": 8020,
      "Ġearn": 8021,
      "88": 8022,
      "ĠRich": 8023,
      "iances": 8024,
      "ĠDown": 8025,
      "ĠJew": 8026,
      "Ġ36": 8027,
      "Ġdollars": 8028,
      "text": 8029,
      "ĠNeed": 8030,
      "Ġcataly": 8031,
      "Ġcoating": 8032,
      "ĠMax": 8033,
      "Ġroads": 8034,
      "Ġpuzz": 8035,
      "ĠCost": 8036,
      "Ġsenior": 8037,
      "Ġsusceptible": 8038,
      "Ġinvasive": 8039,
      "section": 8040,
      "ĠLabor": 8041,
      "Ġcycles": 8042,
      "Ġcircular": 8043,
      "Ġcris": 8044,
      "Ġperm": 8045,
      "Ġconserv": 8046,
      "Ġsuc": 8047,
      "Ġimper": 8048,
      "Ġfoli": 8049,
      "Ġeaten": 8050,
      "Ġphysically": 8051,
      "Ġdefault": 8052,
      "Ġspat": 8053,
      "hyth": 8054,
      "Ġentering": 8055,
      "Ġsin": 8056,
      "cycle": 8057,
      "Ġgender": 8058,
      "Ġroughly": 8059,
      "ĠDid": 8060,
      "ibration": 8061,
      "ĠTips": 8062,
      "ĠSpecial": 8063,
      "pha": 8064,
      "Ġgrams": 8065,
      "range": 8066,
      "Ġpose": 8067,
      "Ġfootprint": 8068,
      "ongevity": 8069,
      "UN": 8070,
      "ĠGlobal": 8071,
      "Ġsatisfact": 8072,
      "Ġsettle": 8073,
      "Ġmeter": 8074,
      "ĠAcademy": 8075,
      "Introduction": 8076,
      "fill": 8077,
      "Ġnine": 8078,
      "Ġtends": 8079,
      "Ġhus": 8080,
      "bar": 8081,
      "Ġcock": 8082,
      "Ġbeds": 8083,
      "Ġhem": 8084,
      "Ġcriteria": 8085,
      "Ġstrongly": 8086,
      "Ġabsorption": 8087,
      "ĠClean": 8088,
      "ĠDisease": 8089,
      "ĠEffect": 8090,
      "Ġreson": 8091,
      "Ġclassified": 8092,
      "imp": 8093,
      "amine": 8094,
      "ĠDire": 8095,
      "Ġwra": 8096,
      "Ġspecified": 8097,
      "Ġfoliage": 8098,
      "ĠFlow": 8099,
      "Ġbicy": 8100,
      "Ġpus": 8101,
      "ĠNext": 8102,
      "aph": 8103,
      "Ġcleaner": 8104,
      "Ġmeth": 8105,
      "ĠWithout": 8106,
      "Ġindicated": 8107,
      "ogens": 8108,
      "ĠCurrent": 8109,
      "Ġdating": 8110,
      "Ġvinegar": 8111,
      "Ġcampaign": 8112,
      "Ġupdate": 8113,
      "Ġom": 8114,
      "Ġbattle": 8115,
      "Ġabnormal": 8116,
      "Ġlivestock": 8117,
      "ĠMart": 8118,
      "Ġlapt": 8119,
      "imer": 8120,
      "Ġshopping": 8121,
      "Ġremed": 8122,
      "Ġlitter": 8123,
      "ĠCN": 8124,
      "Ġuncertain": 8125,
      "Ġdrying": 8126,
      "leg": 8127,
      "Ġreplacing": 8128,
      "Ġstations": 8129,
      "Ġutilize": 8130,
      "Ġeleg": 8131,
      "Ġindoors": 8132,
      "Ġrecycled": 8133,
      "itative": 8134,
      "Ġcuis": 8135,
      "Ġdeploy": 8136,
      "Ġchat": 8137,
      "estone": 8138,
      "apse": 8139,
      "kins": 8140,
      "Ġthank": 8141,
      "ĠThough": 8142,
      "Ġbasics": 8143,
      "ĠSand": 8144,
      "Ġatomic": 8145,
      "Ġversions": 8146,
      "ĠCamp": 8147,
      "Ġfort": 8148,
      "Ġtech": 8149,
      "ayer": 8150,
      "Ġwavelength": 8151,
      "ĠSmall": 8152,
      "77": 8153,
      "Ġexamination": 8154,
      "Ġdesigning": 8155,
      "Ġwarmer": 8156,
      "Ġimplementing": 8157,
      "ĠFran": 8158,
      "Ġmoderate": 8159,
      "Ġfrost": 8160,
      "Ġmosquit": 8161,
      "acent": 8162,
      "atures": 8163,
      "yard": 8164,
      "rots": 8165,
      "Ġpenet": 8166,
      "ĠLess": 8167,
      "asma": 8168,
      "ĠColl": 8169,
      "Ġcaps": 8170,
      "ĠLow": 8171,
      "Ġplacing": 8172,
      "Ġpurchasing": 8173,
      "Ġstunning": 8174,
      "Ġworst": 8175,
      "Ġwheat": 8176,
      "ĠJames": 8177,
      "Ġmand": 8178,
      "itution": 8179,
      "Ġmarkets": 8180,
      "Ġrepresentation": 8181,
      "Ġsetup": 8182,
      "Ġplot": 8183,
      "Ġstruggle": 8184,
      "Ġaquatic": 8185,
      "ĠLead": 8186,
      "ĠAnimal": 8187,
      "86": 8188,
      "Ġhang": 8189,
      "specific": 8190,
      "icide": 8191,
      "Note": 8192,
      "ĠAnim": 8193,
      "Ġcann": 8194,
      "Art": 8195,
      "ashes": 8196,
      "Ġfost": 8197,
      "Ġaccounts": 8198,
      "Ġthereby": 8199,
      "ĠFacebook": 8200,
      "Ġanalys": 8201,
      "Ġshaped": 8202,
      "ĠHand": 8203,
      "Ġwondering": 8204,
      "People": 8205,
      "ĠSy": 8206,
      "Ġrural": 8207,
      "Ġmatters": 8208,
      "Ġ00": 8209,
      "Ġstir": 8210,
      "Ġflowering": 8211,
      "ĠBu": 8212,
      "Ġscar": 8213,
      "Ġconcentrations": 8214,
      "Ġscenario": 8215,
      "Ġencl": 8216,
      "ĠTraining": 8217,
      "ĠDespite": 8218,
      "Ġbelt": 8219,
      "Ġrender": 8220,
      "Each": 8221,
      "Ġgenus": 8222,
      "Post": 8223,
      "utter": 8224,
      "Ġ120": 8225,
      "Ġshooting": 8226,
      "ĠArctic": 8227,
      "anol": 8228,
      "Ġfigures": 8229,
      "eness": 8230,
      "Ġcentre": 8231,
      "ĠEc": 8232,
      "Ġcombust": 8233,
      "Related": 8234,
      "hma": 8235,
      "ĠAS": 8236,
      "Ġru": 8237,
      "aria": 8238,
      "rubs": 8239,
      "ĠExp": 8240,
      "obile": 8241,
      "chnology": 8242,
      "Ġfootball": 8243,
      "Ġgolden": 8244,
      "Finally": 8245,
      "Ġsavings": 8246,
      "Ġemployed": 8247,
      "Ġprivacy": 8248,
      "Ġknife": 8249,
      "EG": 8250,
      "ĠFIG": 8251,
      "Ġforced": 8252,
      "Ġadapted": 8253,
      "throp": 8254,
      "Ġemit": 8255,
      "Ġmagic": 8256,
      "Ġgaming": 8257,
      "Ġtwist": 8258,
      "Ġdeaths": 8259,
      "Ġpor": 8260,
      "LC": 8261,
      "Ġinstitutions": 8262,
      "Ġdiets": 8263,
      "rox": 8264,
      "gypt": 8265,
      "Ġpolymer": 8266,
      "flamm": 8267,
      "Ġcodes": 8268,
      "ĠStar": 8269,
      "BD": 8270,
      "ipher": 8271,
      "onday": 8272,
      "Ġdivision": 8273,
      "High": 8274,
      "Remember": 8275,
      "Ġisolated": 8276,
      "Ġinstruments": 8277,
      "abul": 8278,
      "Ġteen": 8279,
      "ostic": 8280,
      "heast": 8281,
      "Ġshower": 8282,
      "ĠBiology": 8283,
      "eto": 8284,
      "ĠDI": 8285,
      "rance": 8286,
      "isk": 8287,
      "Ġcontemporary": 8288,
      "Ġcontained": 8289,
      "Ġharsh": 8290,
      "Ġinher": 8291,
      "otive": 8292,
      "Ġranges": 8293,
      "Ġappeared": 8294,
      "Ġwhales": 8295,
      "Ġaccidents": 8296,
      "Ġster": 8297,
      "ĠSer": 8298,
      "Ġaccepted": 8299,
      "Ġshelter": 8300,
      "ĠBer": 8301,
      "Ġcircuits": 8302,
      "ubric": 8303,
      "Ġdifferently": 8304,
      "Ġconsuming": 8305,
      "Ġreveal": 8306,
      "ĠPlus": 8307,
      "Ġaging": 8308,
      "Ġcer": 8309,
      "Ġcorrosion": 8310,
      "Ġbloom": 8311,
      "ĠNon": 8312,
      "Ġdisadvant": 8313,
      "Ġoffs": 8314,
      "ductor": 8315,
      "Ġtrail": 8316,
      "Ġtab": 8317,
      "hal": 8318,
      "Ġproviders": 8319,
      "Ġfaces": 8320,
      "Ġdebate": 8321,
      "Ġactively": 8322,
      "Part": 8323,
      "onom": 8324,
      "itan": 8325,
      "Ġgly": 8326,
      "Ġseparated": 8327,
      "ĠMS": 8328,
      "Ġphotographs": 8329,
      "Ġdelight": 8330,
      "ita": 8331,
      "arded": 8332,
      "Ġmathematical": 8333,
      "Ġshoulder": 8334,
      "obby": 8335,
      "MA": 8336,
      "Ġcourt": 8337,
      "Ġeast": 8338,
      "Ġurine": 8339,
      "igan": 8340,
      "Ġidentical": 8341,
      "Ġbulb": 8342,
      "ĠLevel": 8343,
      "Ġsubstantial": 8344,
      "Ġbridge": 8345,
      "Ġdistinctive": 8346,
      "Ġobservation": 8347,
      "tail": 8348,
      "Source": 8349,
      "Ġadhes": 8350,
      "Ġcolored": 8351,
      "Ġmaintained": 8352,
      "Ġhousing": 8353,
      "ĠCap": 8354,
      "ĠKen": 8355,
      "ĠMont": 8356,
      "ĠSpanish": 8357,
      "Ġirrig": 8358,
      "Ġquantities": 8359,
      "Ġ2004": 8360,
      "ĠFed": 8361,
      "Ġspan": 8362,
      "ĠHum": 8363,
      "Ġavoiding": 8364,
      "Ġcaptiv": 8365,
      "was": 8366,
      "Ġhurt": 8367,
      "====": 8368,
      "romagnetic": 8369,
      "Ġmindful": 8370,
      "Ġdynamics": 8371,
      "Keep": 8372,
      "Ġpra": 8373,
      "Ġsemi": 8374,
      "ĠEV": 8375,
      "Ġzones": 8376,
      "Ġpsychological": 8377,
      "Ġfriction": 8378,
      "Ġconj": 8379,
      "neys": 8380,
      "Ġseparation": 8381,
      "Ġgroom": 8382,
      "Ne": 8383,
      "Ġextension": 8384,
      "Ġsummary": 8385,
      "Ġconflict": 8386,
      "Ġacknow": 8387,
      "Ġdecomp": 8388,
      "Ġrating": 8389,
      "Ġdistances": 8390,
      "Ġink": 8391,
      "pres": 8392,
      "Ġperception": 8393,
      "Ġwithstand": 8394,
      "sub": 8395,
      "redit": 8396,
      "Ġbark": 8397,
      "irrel": 8398,
      "ĠStudies": 8399,
      "acles": 8400,
      "Ġheated": 8401,
      "Man": 8402,
      "Ġexpectations": 8403,
      "Ġvaccines": 8404,
      "ua": 8405,
      "Ġneedle": 8406,
      "Ġpriority": 8407,
      "Ġber": 8408,
      "Ġcontributes": 8409,
      "Ġvictim": 8410,
      "59": 8411,
      "ĠVirgin": 8412,
      "ij": 8413,
      "Ġfreezing": 8414,
      "Ġdefense": 8415,
      "Ġrays": 8416,
      "ĠLim": 8417,
      "ĠMethod": 8418,
      "una": 8419,
      "words": 8420,
      "Ġhat": 8421,
      "Ġsink": 8422,
      "Ġtargeted": 8423,
      "Ġnarr": 8424,
      "Ġdemands": 8425,
      "Ġmetabolism": 8426,
      "Ġgirl": 8427,
      "Ġdelve": 8428,
      "Ġinn": 8429,
      "ady": 8430,
      "Ġcurious": 8431,
      "Ġanat": 8432,
      "occ": 8433,
      "ĠIce": 8434,
      "perm": 8435,
      "Ġintegrity": 8436,
      "imm": 8437,
      "Ġtear": 8438,
      "Av": 8439,
      "Ġpepper": 8440,
      "Ġcrisis": 8441,
      "Ġmg": 8442,
      "Ġregulate": 8443,
      "anta": 8444,
      "ĠCong": 8445,
      "rapeutic": 8446,
      "Ġfaced": 8447,
      "Ġants": 8448,
      "DS": 8449,
      "Ġsoy": 8450,
      "Ġrequirement": 8451,
      "Ġfans": 8452,
      "ĠPaul": 8453,
      "iological": 8454,
      "Ġframes": 8455,
      "ĠCoast": 8456,
      "ĠGreek": 8457,
      "Ġpizza": 8458,
      "ĠIncre": 8459,
      "Ġaquarium": 8460,
      "owing": 8461,
      "Ġdesigners": 8462,
      "Ġenvironmentally": 8463,
      "Ġbathroom": 8464,
      "reet": 8465,
      "Ġembed": 8466,
      "See": 8467,
      "Ġeastern": 8468,
      "Ear": 8469,
      "oir": 8470,
      "Ġmanager": 8471,
      "Ġequally": 8472,
      "dered": 8473,
      "Ġstrengthen": 8474,
      "dimensional": 8475,
      "Ġhormones": 8476,
      "ĠPresident": 8477,
      "Up": 8478,
      "ample": 8479,
      "Gl": 8480,
      "Ġemerging": 8481,
      "Ġsurve": 8482,
      "ĠDar": 8483,
      "Ġrooms": 8484,
      "Ġfacilitate": 8485,
      "Ġdischarge": 8486,
      "Ġrepeat": 8487,
      "istance": 8488,
      "eah": 8489,
      "ione": 8490,
      "Ġdrinks": 8491,
      "Ġhence": 8492,
      "Ġ65": 8493,
      "Ġenjoyed": 8494,
      "rd": 8495,
      "aneous": 8496,
      "ĠSouthern": 8497,
      "Ġgraphics": 8498,
      "Ġfaith": 8499,
      "ĠCommunity": 8500,
      "class": 8501,
      "dep": 8502,
      "mod": 8503,
      "Ġpale": 8504,
      "\")": 8505,
      "________________": 8506,
      "Ġharness": 8507,
      "ĠCirc": 8508,
      "Ġoutl": 8509,
      "EE": 8510,
      "Ġsoda": 8511,
      "Ġtheories": 8512,
      "ĠHelp": 8513,
      "Ġcitizens": 8514,
      "Ġmagnet": 8515,
      "Ġoffic": 8516,
      "Ġenthusiasts": 8517,
      "Ġ;": 8518,
      "Ġtong": 8519,
      "ano": 8520,
      "aska": 8521,
      "eterm": 8522,
      "Ġadverse": 8523,
      "Ġscreening": 8524,
      "called": 8525,
      "ĠDisc": 8526,
      "Ġinfluenced": 8527,
      "ĠImport": 8528,
      "Ġwitness": 8529,
      "aret": 8530,
      "Ġfrequencies": 8531,
      "Ġwound": 8532,
      "Ġbeat": 8533,
      "Ġacting": 8534,
      "Ġvessel": 8535,
      "Scient": 8536,
      "Ġreasonable": 8537,
      "Ġjaw": 8538,
      "Ġ1000": 8539,
      "Ġfingers": 8540,
      "vas": 8541,
      "Ġstopped": 8542,
      "formance": 8543,
      "Ġrealistic": 8544,
      "azine": 8545,
      "uber": 8546,
      "Ġbor": 8547,
      "Ġcure": 8548,
      "Ġwooden": 8549,
      "unting": 8550,
      "ĠSystems": 8551,
      "Sum": 8552,
      "Ġapple": 8553,
      "Ġsubt": 8554,
      "Ġabundance": 8555,
      "Ġfatigue": 8556,
      "ĠLibrary": 8557,
      "emicon": 8558,
      "str": 8559,
      "IA": 8560,
      "Ġutilized": 8561,
      "ailable": 8562,
      "omer": 8563,
      "Ġsnakes": 8564,
      "Ġrent": 8565,
      "Trans": 8566,
      "ĠHor": 8567,
      "nsure": 8568,
      "Ġdinner": 8569,
      "Ġviral": 8570,
      "Ġfighting": 8571,
      "Ġlaunched": 8572,
      "ercury": 8573,
      "Ġnode": 8574,
      "Ġflies": 8575,
      "Ġchecked": 8576,
      "Ġimprovements": 8577,
      "%)": 8578,
      "ih": 8579,
      "Ġgenetics": 8580,
      "ĠUnlike": 8581,
      "Ġsatellite": 8582,
      "world": 8583,
      "Ġaccomplish": 8584,
      "Ġconfiguration": 8585,
      "onna": 8586,
      "ĠForest": 8587,
      "Ġic": 8588,
      "iotic": 8589,
      "alog": 8590,
      "ĠUnfortunately": 8591,
      "ĠMer": 8592,
      "ĠBusiness": 8593,
      "sen": 8594,
      "Ġaesthetic": 8595,
      "function": 8596,
      "reshold": 8597,
      "Then": 8598,
      "FT": 8599,
      "ĠAsian": 8600,
      "Ġbind": 8601,
      "Ġprocessor": 8602,
      "ustainable": 8603,
      "gr": 8604,
      "ĠSign": 8605,
      "ediatric": 8606,
      "Ġgrab": 8607,
      "Ġ@": 8608,
      "Ġlongevity": 8609,
      "Ġalive": 8610,
      "riage": 8611,
      "Ġpine": 8612,
      "ipal": 8613,
      "98": 8614,
      "Ġtrick": 8615,
      "Ġmeaningful": 8616,
      "orph": 8617,
      "Ġlatter": 8618,
      "uten": 8619,
      "57": 8620,
      "Ġstake": 8621,
      "Ġfinds": 8622,
      "Ġvisually": 8623,
      "ivered": 8624,
      "\"?": 8625,
      "Ġdatas": 8626,
      "ĠIT": 8627,
      "ĠBul": 8628,
      "Ġevening": 8629,
      "Ġchickens": 8630,
      "Ġagencies": 8631,
      "ĠBrazil": 8632,
      "Take": 8633,
      "ĠLast": 8634,
      "Please": 8635,
      "Ġspeakers": 8636,
      "nds": 8637,
      "Ġacceleration": 8638,
      "Ġabsence": 8639,
      "Last": 8640,
      "Ġkilling": 8641,
      "Ġtoilet": 8642,
      "Ġupl": 8643,
      "Ġshallow": 8644,
      "Ġexceptional": 8645,
      "Ġforecast": 8646,
      "ĠIdent": 8647,
      "Ġmistakes": 8648,
      "necess": 8649,
      "ppers": 8650,
      "Ġarts": 8651,
      "Ġchains": 8652,
      "Ġvom": 8653,
      "Ġimmers": 8654,
      "Ġ1990": 8655,
      "ĠEgypt": 8656,
      "Ġfoam": 8657,
      "Ġforth": 8658,
      "Ġreadily": 8659,
      "Ġcontroller": 8660,
      "Main": 8661,
      "Ġstaying": 8662,
      "Ġassociation": 8663,
      "Ġautomatic": 8664,
      "ventions": 8665,
      "Ġcondens": 8666,
      "ĠIr": 8667,
      "Ġengaged": 8668,
      "58": 8669,
      "ptom": 8670,
      "Ġgenerating": 8671,
      "ĠNorthern": 8672,
      "ola": 8673,
      "emia": 8674,
      "ĠJes": 8675,
      "Ġsuspect": 8676,
      "rog": 8677,
      "Ġinhab": 8678,
      "Ġpotassium": 8679,
      "Ġaggreg": 8680,
      "Ġcooler": 8681,
      "Ġbeliefs": 8682,
      "esis": 8683,
      "weed": 8684,
      "Ġsimultaneously": 8685,
      "aland": 8686,
      "Ġmicrosc": 8687,
      "Ġthousand": 8688,
      "ĠDev": 8689,
      "Ġextinction": 8690,
      "Ġglue": 8691,
      "Ġreproductive": 8692,
      "ĠPython": 8693,
      "ĠContin": 8694,
      "Sec": 8695,
      "\":\"": 8696,
      "Ġmoments": 8697,
      "Hz": 8698,
      "onut": 8699,
      "ĠImpro": 8700,
      "Ġthorough": 8701,
      "weet": 8702,
      "Em": 8703,
      "ĠPoint": 8704,
      "Ġlowest": 8705,
      "Ġabundant": 8706,
      "ĠRock": 8707,
      "ĠVari": 8708,
      "ĠFil": 8709,
      "Ġclassification": 8710,
      "Ġnewly": 8711,
      "ĠNever": 8712,
      "ĠCentre": 8713,
      "Ġperenn": 8714,
      "Ġliterally": 8715,
      "Ġrestore": 8716,
      "Ġsuddenly": 8717,
      "ĠNO": 8718,
      "She": 8719,
      "real": 8720,
      "ĠGal": 8721,
      "Ġtailored": 8722,
      "Med": 8723,
      "Ġdates": 8724,
      "Ġbinding": 8725,
      "venue": 8726,
      "ĠEarly": 8727,
      "Ġearthqu": 8728,
      "ĠFarm": 8729,
      "Ġpace": 8730,
      "Ġbelieves": 8731,
      "Ġasp": 8732,
      "Key": 8733,
      "pass": 8734,
      "levision": 8735,
      "Ġabuse": 8736,
      "ĠUlt": 8737,
      "Ġbene": 8738,
      "Ġaimed": 8739,
      "Check": 8740,
      "oline": 8741,
      "ĠFact": 8742,
      "ĠDue": 8743,
      "Ġprolong": 8744,
      "GB": 8745,
      "ĠApplic": 8746,
      "Ġmutations": 8747,
      "Ġinspection": 8748,
      "oil": 8749,
      "ĠItalian": 8750,
      "Ġcalling": 8751,
      "Ġalongside": 8752,
      "Ġcaptured": 8753,
      "Ġmetric": 8754,
      "Ġinvestigate": 8755,
      "78": 8756,
      "Ġthy": 8757,
      "ĠMicrosoft": 8758,
      "Ġlunch": 8759,
      "UL": 8760,
      "olars": 8761,
      "ĠRober": 8762,
      "oof": 8763,
      "oin": 8764,
      "Ġgran": 8765,
      "Ġweeds": 8766,
      "Ġgrew": 8767,
      "Ġcommitted": 8768,
      "Ġpesticides": 8769,
      "ĠThink": 8770,
      "ometers": 8771,
      "uled": 8772,
      "Ġrestric": 8773,
      "niv": 8774,
      "Ġsubsc": 8775,
      "Ġcoil": 8776,
      "ĠFire": 8777,
      "Ġtransformation": 8778,
      "Ġscales": 8779,
      "ĠSmith": 8780,
      "onomic": 8781,
      "Ġtomato": 8782,
      "%,": 8783,
      "Ġimproves": 8784,
      "ĠKids": 8785,
      "ĠTom": 8786,
      "EST": 8787,
      "itory": 8788,
      "gency": 8789,
      "Ġstack": 8790,
      "py": 8791,
      "ami": 8792,
      "Ġlarvae": 8793,
      "Ġreturned": 8794,
      "Ġexplo": 8795,
      "Ġdisplays": 8796,
      "Ġlie": 8797,
      "ato": 8798,
      "Ġillegal": 8799,
      "df": 8800,
      "Ġdiarr": 8801,
      "Ġconsistently": 8802,
      "Ġunexpected": 8803,
      "road": 8804,
      "ĠHead": 8805,
      "Ġlosses": 8806,
      "\",\"": 8807,
      "CR": 8808,
      "Ġdevelopers": 8809,
      "Ġloads": 8810,
      "Ġconsistency": 8811,
      "Ġcher": 8812,
      "Ġimpressive": 8813,
      "Ġqualities": 8814,
      "ĠPri": 8815,
      "itle": 8816,
      "Ġhide": 8817,
      "ĠBoard": 8818,
      "controll": 8819,
      "Ġvapor": 8820,
      "ĠMars": 8821,
      "Ġnic": 8822,
      "Ġmeets": 8823,
      "Ġdeck": 8824,
      "ĠJer": 8825,
      "Ġhighlights": 8826,
      "Ġlact": 8827,
      "Ġmaps": 8828,
      "Ġappet": 8829,
      "Ġarom": 8830,
      "Ġcylinder": 8831,
      "dis": 8832,
      "olves": 8833,
      "Ġtelling": 8834,
      "ĠOx": 8835,
      "uming": 8836,
      "Ġenhances": 8837,
      "Ġ48": 8838,
      "Ġconvenience": 8839,
      "umbing": 8840,
      "66": 8841,
      "Ġepid": 8842,
      "Ġcardiovascular": 8843,
      "Ġutility": 8844,
      "Ġoverview": 8845,
      "ĠDem": 8846,
      "Ġsentence": 8847,
      "Ġsafer": 8848,
      "ednes": 8849,
      "istical": 8850,
      "Ġunp": 8851,
      "Ġlegisl": 8852,
      "Ġproportion": 8853,
      "Ġpainful": 8854,
      "uke": 8855,
      "Add": 8856,
      "Ġconfirmed": 8857,
      "Ġinspiration": 8858,
      "Ġmud": 8859,
      "Ġsymbols": 8860,
      "Americ": 8861,
      "Ġrequiring": 8862,
      "Who": 8863,
      "ĠChristian": 8864,
      "Ġtang": 8865,
      "Ġapproved": 8866,
      "Ġleaks": 8867,
      "ĠResp": 8868,
      "Ġreliability": 8869,
      "ependent": 8870,
      "cut": 8871,
      "Ġpromotes": 8872,
      "aying": 8873,
      "Ġkick": 8874,
      "Ġtemporary": 8875,
      "Ġconstructed": 8876,
      "ala": 8877,
      "Ġdentist": 8878,
      "ĠModel": 8879,
      "Ġhol": 8880,
      "ranean": 8881,
      "Ġtrials": 8882,
      "Ġsheep": 8883,
      "Ġmechanics": 8884,
      "Ġsubsequent": 8885,
      "ĠAlex": 8886,
      "ĠJava": 8887,
      "Additionally": 8888,
      "Ġequations": 8889,
      "Ġdominant": 8890,
      "Ġalike": 8891,
      "Ġweed": 8892,
      "elled": 8893,
      "ested": 8894,
      "wear": 8895,
      "300": 8896,
      "Ġpasses": 8897,
      "auge": 8898,
      "Ġwinds": 8899,
      "Ġagreement": 8900,
      "Ġraising": 8901,
      "!)": 8902,
      "Ġbasket": 8903,
      "Ġcolours": 8904,
      "Ġ2003": 8905,
      "Ġ~": 8906,
      "Ġfourth": 8907,
      "Ġdelivered": 8908,
      "Ġappliances": 8909,
      "ena": 8910,
      "Ġbreakfast": 8911,
      "ĠKore": 8912,
      "Ġoccasionally": 8913,
      "ĠStudy": 8914,
      "oosing": 8915,
      "Ġhygiene": 8916,
      "foot": 8917,
      "ĠClick": 8918,
      "Ġrings": 8919,
      "ĠPop": 8920,
      "Ġwarrant": 8921,
      "orted": 8922,
      "Ġsynthesis": 8923,
      "Ġadvancements": 8924,
      "Ġsug": 8925,
      "Ġcompression": 8926,
      "ĠYet": 8927,
      "Ġshr": 8928,
      "orus": 8929,
      "Ġvoc": 8930,
      "ithium": 8931,
      "ĠMel": 8932,
      "ĠSqu": 8933,
      "rimp": 8934,
      "Ġgel": 8935,
      "ĠName": 8936,
      "Ġbutt": 8937,
      "they": 8938,
      "Ġspecialist": 8939,
      "Ġseasons": 8940,
      "Ġupdates": 8941,
      "ifts": 8942,
      "Ġsequences": 8943,
      "Ġtorque": 8944,
      "istan": 8945,
      "Ġshots": 8946,
      "Ġboards": 8947,
      "Ġboiling": 8948,
      "ĠCanadian": 8949,
      "Cle": 8950,
      "Ġintent": 8951,
      "obic": 8952,
      "ĠUnion": 8953,
      "Ġslic": 8954,
      "Ġnavigation": 8955,
      "Ġarise": 8956,
      "Ġgrinding": 8957,
      "ĠDigital": 8958,
      "Ġinfo": 8959,
      "roud": 8960,
      "Ġtraveling": 8961,
      "Ġeverywhere": 8962,
      "Ġmorph": 8963,
      "Ġtoy": 8964,
      "Ġtubes": 8965,
      "Ġfantastic": 8966,
      "vy": 8967,
      "ĠPain": 8968,
      "hi": 8969,
      "Ġcompanion": 8970,
      "Ġestimates": 8971,
      "Ġscenarios": 8972,
      "ouds": 8973,
      "Ġprogramme": 8974,
      "ortion": 8975,
      "Ġconsiderations": 8976,
      "Ġadopted": 8977,
      "oz": 8978,
      "Today": 8979,
      "Ġbehavioral": 8980,
      "Ġtrace": 8981,
      "Ġhunt": 8982,
      "Ġresilience": 8983,
      "Ġpitch": 8984,
      "Ġscheme": 8985,
      "oded": 8986,
      "resistant": 8987,
      "ĠElectric": 8988,
      "Ġresearcher": 8989,
      "Ġash": 8990,
      "ĠAnn": 8991,
      "isters": 8992,
      "Ġstitch": 8993,
      "Ġangles": 8994,
      "Ġdaughter": 8995,
      "Ġolive": 8996,
      "Ġultra": 8997,
      "ĠGrow": 8998,
      "ĠResources": 8999,
      "Ġprecip": 9000,
      "Ġresulted": 9001,
      "Ġfreeze": 9002,
      "Ġcups": 9003,
      "ĠCreate": 9004,
      "Ġobviously": 9005,
      "Ġanticip": 9006,
      "ĠMad": 9007,
      "Ġfeat": 9008,
      "ĠOffice": 9009,
      "ĠThree": 9010,
      "Ref": 9011,
      "elcome": 9012,
      "Ġhazards": 9013,
      "Ġplain": 9014,
      "Ġspider": 9015,
      "ĠBetween": 9016,
      "onym": 9017,
      "Ġfraction": 9018,
      "****": 9019,
      "Ġagency": 9020,
      "oved": 9021,
      "Ġguarantee": 9022,
      "://": 9023,
      "ĠSen": 9024,
      "Ġscope": 9025,
      "ĠUt": 9026,
      "Ġmagnitude": 9027,
      "chron": 9028,
      "Ġsad": 9029,
      "rin": 9030,
      "Ġmim": 9031,
      "Ġbeneath": 9032,
      "uble": 9033,
      "Ġyeast": 9034,
      "Ġmigration": 9035,
      "Ġpartial": 9036,
      "Ġfailed": 9037,
      "ĠHaving": 9038,
      "Ġanch": 9039,
      "isticated": 9040,
      "Mod": 9041,
      "arents": 9042,
      "imen": 9043,
      "Ġtens": 9044,
      "Ġfungi": 9045,
      "date": 9046,
      "ĠIde": 9047,
      "Ġundert": 9048,
      "Ġgrey": 9049,
      "Ġsurroundings": 9050,
      "Ġmicrowave": 9051,
      "Ġcoron": 9052,
      "Sub": 9053,
      "appy": 9054,
      ")?": 9055,
      "Ġwife": 9056,
      "ĠFig": 9057,
      "Ġpatch": 9058,
      "Ġpushing": 9059,
      "Ġspinal": 9060,
      "Ġrealized": 9061,
      "Ġseaf": 9062,
      "Ġreproduction": 9063,
      "ĠProduct": 9064,
      "ĠON": 9065,
      "name": 9066,
      "Ġversus": 9067,
      "Ġpurchased": 9068,
      "ĠValley": 9069,
      "ĠProble": 9070,
      "Ġunderwater": 9071,
      "Ġcycling": 9072,
      "Ġtemper": 9073,
      "itus": 9074,
      "Ġshaft": 9075,
      "Ġsensory": 9076,
      "Ġsediment": 9077,
      "hene": 9078,
      "Ġobjectives": 9079,
      "Ġstops": 9080,
      "Ġtact": 9081,
      "ĠTree": 9082,
      "heel": 9083,
      "itate": 9084,
      "ĠOld": 9085,
      "Ġreturns": 9086,
      "Ġinstant": 9087,
      "Ġreader": 9088,
      "Ġfluctu": 9089,
      "Ġultimate": 9090,
      "Ġpad": 9091,
      "Ġtransparent": 9092,
      "Ġsolving": 9093,
      "holders": 9094,
      "Ġexamined": 9095,
      "ĠLand": 9096,
      "irable": 9097,
      "Ġsearching": 9098,
      "HD": 9099,
      "52": 9100,
      "Ġcontents": 9101,
      "SL": 9102,
      "Ġspreading": 9103,
      "Ġlicense": 9104,
      "iner": 9105,
      "Ġwherein": 9106,
      "Ġwelcome": 9107,
      "Ġcombustion": 9108,
      "Ġlakes": 9109,
      "omal": 9110,
      "Start": 9111,
      "Ġseemed": 9112,
      "Ġseriously": 9113,
      "ĠÂ°": 9114,
      "Ġparties": 9115,
      "Ġthreshold": 9116,
      "Abstract": 9117,
      "stery": 9118,
      "oop": 9119,
      "ĠPoly": 9120,
      "ĠPhotoshop": 9121,
      "Ġdistrict": 9122,
      "Ġaccessories": 9123,
      "ĠClub": 9124,
      "su": 9125,
      "Ġmile": 9126,
      "Ġlifetime": 9127,
      "Ġslight": 9128,
      "ĠBrown": 9129,
      "Ġanyway": 9130,
      "Ġevenly": 9131,
      "Ġpolice": 9132,
      "rame": 9133,
      "scill": 9134,
      "Ġsemicon": 9135,
      "Phys": 9136,
      "Ġextraction": 9137,
      "aby": 9138,
      "Ġrealm": 9139,
      "Ġinitiatives": 9140,
      "OP": 9141,
      "inery": 9142,
      "Ġconverted": 9143,
      "ĠSelect": 9144,
      "Ġfunds": 9145,
      "Ġencourages": 9146,
      "ednesday": 9147,
      "ĠHawai": 9148,
      "Cal": 9149,
      "onics": 9150,
      "ĠVict": 9151,
      "ĊĊ": 9152,
      "umbers": 9153,
      "Ġacute": 9154,
      "hops": 9155,
      "ĠWik": 9156,
      "Ġcuisine": 9157,
      "Ġstrange": 9158,
      "Ġmagnesium": 9159,
      "Ġrestaurants": 9160,
      "ju": 9161,
      "Ġdestination": 9162,
      "ca": 9163,
      "Ġdepart": 9164,
      "Ġhypothesis": 9165,
      "Ġrainfall": 9166,
      "Ġadm": 9167,
      "Ġlightweight": 9168,
      "Ġbrother": 9169,
      "Ġoptimize": 9170,
      "Ġlearners": 9171,
      "Ġannounced": 9172,
      "Ġdeficiency": 9173,
      "Diff": 9174,
      "ĠRoyal": 9175,
      "Fl": 9176,
      "Ġcouns": 9177,
      "Ġnucleus": 9178,
      "arks": 9179,
      "Ġmodeling": 9180,
      "raul": 9181,
      "actions": 9182,
      "fting": 9183,
      "Ġdisplayed": 9184,
      "Ġshore": 9185,
      "Ġallergic": 9186,
      "sol": 9187,
      "Ġjoined": 9188,
      "ilst": 9189,
      "forward": 9190,
      "idae": 9191,
      "Ġsurprise": 9192,
      "Ġatmospheric": 9193,
      "Ġmaximize": 9194,
      "Ġbeings": 9195,
      "also": 9196,
      "Ġtrauma": 9197,
      "Ġboy": 9198,
      "Ġtrap": 9199,
      "ĠDiv": 9200,
      "vision": 9201,
      "ĠTim": 9202,
      "ĠSP": 9203,
      "Ġsharks": 9204,
      "ĠZealand": 9205,
      "Ġlemon": 9206,
      "ĠCR": 9207,
      "ĠAlways": 9208,
      "bert": 9209,
      "ĠRoman": 9210,
      "Ġcontinuously": 9211,
[...]
